{
  "version": "1.0",
  "truncation": null,
  "padding": null,
  "added_tokens": [
    {
      "id": 0,
      "content": "<UNK>",
      "single_word": false,
      "lstrip": false,
      "rstrip": false,
      "normalized": false,
      "special": true
    },
    {
      "id": 1,
      "content": "<|endoftext|>",
      "single_word": false,
      "lstrip": false,
      "rstrip": false,
      "normalized": false,
      "special": true
    }
  ],
  "normalizer": null,
  "pre_tokenizer": {
    "type": "Whitespace"
  },
  "post_processor": null,
  "decoder": null,
  "model": {
    "type": "BPE",
    "dropout": null,
    "unk_token": "<UNK>",
    "continuing_subword_prefix": null,
    "end_of_word_suffix": null,
    "fuse_unk": false,
    "byte_fallback": false,
    "ignore_merges": false,
    "vocab": {
      "<UNK>": 0,
      "<|endoftext|>": 1,
      "!": 2,
      "\"": 3,
      "#": 4,
      "$": 5,
      "&": 6,
      "'": 7,
      "(": 8,
      ")": 9,
      "*": 10,
      "+": 11,
      ",": 12,
      "-": 13,
      ".": 14,
      "/": 15,
      "0": 16,
      "1": 17,
      "2": 18,
      "3": 19,
      "4": 20,
      "5": 21,
      "6": 22,
      "7": 23,
      "8": 24,
      "9": 25,
      ":": 26,
      ";": 27,
      "<": 28,
      ">": 29,
      "?": 30,
      "D": 31,
      "E": 32,
      "N": 33,
      "a": 34,
      "b": 35,
      "c": 36,
      "d": 37,
      "e": 38,
      "f": 39,
      "g": 40,
      "h": 41,
      "i": 42,
      "j": 43,
      "k": 44,
      "l": 45,
      "m": 46,
      "n": 47,
      "o": 48,
      "p": 49,
      "q": 50,
      "r": 51,
      "s": 52,
      "t": 53,
      "u": 54,
      "v": 55,
      "w": 56,
      "x": 57,
      "y": 58,
      "z": 59,
      "|": 60,
      "­": 61,
      "´": 62,
      "é": 63,
      "ñ": 64,
      "​": 65,
      "–": 66,
      "—": 67,
      "‘": 68,
      "’": 69,
      "“": 70,
      "”": 71,
      "…": 72,
      "🎓": 73,
      "he": 74,
      "the": 75,
      "an": 76,
      "ed": 77,
      "to": 78,
      "and": 79,
      "in": 80,
      "it": 81,
      "re": 82,
      "as": 83,
      "EN": 84,
      "END": 85,
      "ou": 86,
      "on": 87,
      "ha": 88,
      "en": 89,
      "er": 90,
      "was": 91,
      "ar": 92,
      "ay": 93,
      "she": 94,
      "ing": 95,
      "om": 96,
      "is": 97,
      "il": 98,
      "id": 99,
      "sa": 100,
      "le": 101,
      "they": 102,
      "al": 103,
      "im": 104,
      "lo": 105,
      "or": 106,
      "of": 107,
      "her": 108,
      "st": 109,
      "th": 110,
      "at": 111,
      "ir": 112,
      "be": 113,
      "end": 114,
      "ver": 115,
      "hat": 116,
      "ut": 117,
      "no": 118,
      "ck": 119,
      "ld": 120,
      "ce": 121,
      "tim": 122,
      "se": 123,
      "ke": 124,
      "you": 125,
      "so": 126,
      "ex": 127,
      "ig": 128,
      "said": 129,
      "ily": 130,
      "ve": 131,
      "his": 132,
      "am": 133,
      "pl": 134,
      "we": 135,
      "wit": 136,
      "pp": 137,
      "with": 138,
      "one": 139,
      "mom": 140,
      "ri": 141,
      "ad": 142,
      "un": 143,
      "lily": 144,
      "that": 145,
      "ly": 146,
      "ok": 147,
      "day": 148,
      "very": 149,
      "but": 150,
      "ome": 151,
      "up": 152,
      "go": 153,
      "my": 154,
      "do": 155,
      "li": 156,
      "ted": 157,
      "ho": 158,
      "ne": 159,
      "bo": 160,
      "had": 161,
      "play": 162,
      "ch": 163,
      "ext": 164,
      "for": 165,
      "fe": 166,
      "all": 167,
      "es": 168,
      "oft": 169,
      "ro": 170,
      "ould": 171,
      "tle": 172,
      "<|": 173,
      "|>": 174,
      "endoft": 175,
      "endoftext": 176,
      "ked": 177,
      "happ": 178,
      "oun": 179,
      "ge": 180,
      "ent": 181,
      "wan": 182,
      "there": 183,
      "lit": 184,
      "ma": 185,
      "time": 186,
      "little": 187,
      "ound": 188,
      "are": 189,
      "out": 190,
      "ra": 191,
      "ther": 192,
      "not": 193,
      "ht": 194,
      "happy": 195,
      "ry": 196,
      "big": 197,
      "sm": 198,
      "saw": 199,
      "some": 200,
      "ack": 201,
      "fri": 202,
      "friend": 203,
      "look": 204,
      "ul": 205,
      "ide": 206,
      "thing": 207,
      "once": 208,
      "ved": 209,
      "way": 210,
      ".\"": 211,
      "were": 212,
      "sp": 213,
      "ug": 214,
      "whe": 215,
      "him": 216,
      "!\"": 217,
      "ter": 218,
      "su": 219,
      "upon": 220,
      "car": 221,
      "irl": 222,
      "wanted": 223,
      "girl": 224,
      "el": 225,
      "ful": 226,
      "co": 227,
      "mo": 228,
      "tom": 229,
      "can": 230,
      "hel": 231,
      "could": 232,
      "them": 233,
      "their": 234,
      "fr": 235,
      "did": 236,
      "me": 237,
      "ec": 238,
      "smil": 239,
      "ill": 240,
      "ben": 241,
      "sh": 242,
      "ind": 243,
      "went": 244,
      "have": 245,
      "new": 246,
      "ag": 247,
      "nam": 248,
      "help": 249,
      "when": 250,
      "od": 251,
      "timmy": 252,
      "fel": 253,
      "ight": 254,
      "friends": 255,
      "ta": 256,
      "back": 257,
      "from": 258,
      "wn": 259,
      "um": 260,
      "what": 261,
      "ard": 262,
      "side": 263,
      "then": 264,
      "ark": 265,
      "named": 266,
      "ran": 267,
      "fo": 268,
      "che": 269,
      "every": 270,
      "?\"": 271,
      "fun": 272,
      "ur": 273,
      "man": 274,
      "ic": 275,
      "jo": 276,
      "loved": 277,
      "star": 278,
      "too": 279,
      "la": 280,
      "like": 281,
      "felt": 282,
      "oug": 283,
      "pr": 284,
      "smiled": 285,
      "sto": 286,
      "asked": 287,
      "pe": 288,
      "toy": 289,
      "ick": 290,
      "around": 291,
      "ame": 292,
      "ain": 293,
      "say": 294,
      "boy": 295,
      "looked": 296,
      "would": 297,
      "ab": 298,
      "see": 299,
      "low": 300,
      "now": 301,
      "ts": 302,
      "how": 303,
      "bir": 304,
      "wor": 305,
      "make": 306,
      "ca": 307,
      "ree": 308,
      "ong": 309,
      "bird": 310,
      "mommy": 311,
      "ice": 312,
      "gr": 313,
      "other": 314,
      "op": 315,
      "mad": 316,
      "away": 317,
      "than": 318,
      "started": 319,
      "toge": 320,
      "together": 321,
      "came": 322,
      "dd": 323,
      "ited": 324,
      "ss": 325,
      "ie": 326,
      "dad": 327,
      "oud": 328,
      "made": 329,
      "something": 330,
      "put": 331,
      "exc": 332,
      "sad": 333,
      "park": 334,
      "got": 335,
      "wat": 336,
      "if": 337,
      "na": 338,
      "want": 339,
      ",\"": 340,
      "good": 341,
      "mu": 342,
      "home": 343,
      "let": 344,
      "who": 345,
      "found": 346,
      "again": 347,
      "wal": 348,
      "scar": 349,
      "get": 350,
      "lu": 351,
      "dec": 352,
      "ll": 353,
      "ave": 354,
      "ried": 355,
      "wo": 356,
      "qu": 357,
      "pped": 358,
      "ure": 359,
      "says": 360,
      "ep": 361,
      "by": 362,
      "excited": 363,
      "playing": 364,
      "ought": 365,
      "more": 366,
      "king": 367,
      "wh": 368,
      "ny": 369,
      "hug": 370,
      "ided": 371,
      "br": 372,
      "things": 373,
      "ous": 374,
      "decided": 375,
      "ach": 376,
      "bu": 377,
      "af": 378,
      "ty": 379,
      "use": 380,
      "der": 381,
      "po": 382,
      "dog": 383,
      "liked": 384,
      "down": 385,
      "sha": 386,
      "arn": 387,
      "sam": 388,
      "scared": 389,
      "yes": 390,
      "ouse": 391,
      "ways": 392,
      "this": 393,
      "care": 394,
      "fa": 395,
      "find": 396,
      "your": 397,
      "bb": 398,
      "ust": 399,
      "clo": 400,
      "didn": 401,
      "ara": 402,
      "max": 403,
      "always": 404,
      "ate": 405,
      "take": 406,
      "feel": 407,
      "outside": 408,
      "ally": 409,
      "took": 410,
      "come": 411,
      "spec": 412,
      "about": 413,
      "pre": 414,
      "tree": 415,
      "ang": 416,
      "et": 417,
      "sara": 418,
      "our": 419,
      "toys": 420,
      "old": 421,
      "te": 422,
      "learn": 423,
      "ant": 424,
      "will": 425,
      "ched": 426,
      "cat": 427,
      "knew": 428,
      "fore": 429,
      "thought": 430,
      "ened": 431,
      "de": 432,
      "anna": 433,
      "ial": 434,
      "ise": 435,
      "sor": 436,
      "ive": 437,
      "ite": 438,
      "sudd": 439,
      "sudden": 440,
      "special": 441,
      "room": 442,
      "wa": 443,
      "ers": 444,
      "know": 445,
      "laug": 446,
      "inside": 447,
      "suddenly": 448,
      "ged": 449,
      "ru": 450,
      "after": 451,
      "never": 452,
      "jack": 453,
      "sw": 454,
      "any": 455,
      "ble": 456,
      "run": 457,
      "much": 458,
      "ish": 459,
      "house": 460,
      "just": 461,
      "don": 462,
      "mi": 463,
      "lf": 464,
      "fin": 465,
      "cle": 466,
      "ball": 467,
      "red": 468,
      "ink": 469,
      "sun": 470,
      "ven": 471,
      "dre": 472,
      "show": 473,
      "us": 474,
      "couldn": 475,
      "cre": 476,
      "spo": 477,
      "sorry": 478,
      "led": 479,
      "over": 480,
      "eat": 481,
      "ist": 482,
      "into": 483,
      "tried": 484,
      "cause": 485,
      "sk": 486,
      "careful": 487,
      "long": 488,
      "because": 489,
      "hed": 490,
      "gave": 491,
      "hand": 492,
      "dy": 493,
      "told": 494,
      "proud": 495,
      "ump": 496,
      "unt": 497,
      "ion": 498,
      "played": 499,
      "ast": 500,
      "read": 501,
      "har": 502,
      "heard": 503,
      "arm": 504,
      "box": 505,
      "water": 506,
      "gre": 507,
      "pick": 508,
      "ear": 509,
      "cl": 510,
      "thank": 511,
      "exp": 512,
      "bear": 513,
      "fly": 514,
      "each": 515,
      "pa": 516,
      "hugged": 517,
      "off": 518,
      "where": 519,
      "pret": 520,
      "ile": 521,
      "com": 522,
      "rabb": 523,
      "try": 524,
      "ber": 525,
      "need": 526,
      "shed": 527,
      "shin": 528,
      "until": 529,
      "nice": 530,
      "love": 531,
      "small": 532,
      "bet": 533,
      "everyone": 534,
      "mia": 535,
      "ving": 536,
      "even": 537,
      "flow": 538,
      "ough": 539,
      "self": 540,
      "kind": 541,
      "learned": 542,
      "bea": 543,
      "ac": 544,
      "many": 545,
      "bed": 546,
      "iz": 547,
      "its": 548,
      "better": 549,
      "anim": 550,
      "animal": 551,
      "ting": 552,
      "rain": 553,
      "bro": 554,
      "soon": 555,
      "lad": 556,
      "ass": 557,
      "fi": 558,
      "vent": 559,
      "pu": 560,
      "per": 561,
      "safe": 562,
      "ace": 563,
      "explo": 564,
      "jump": 565,
      "cy": 566,
      "beaut": 567,
      "tre": 568,
      "tur": 569,
      "ol": 570,
      "thanked": 571,
      "bra": 572,
      "spot": 573,
      "hur": 574,
      "lots": 575,
      "best": 576,
      "call": 577,
      "laughed": 578,
      "fle": 579,
      "fam": 580,
      "under": 581,
      "pt": 582,
      "rea": 583,
      "sur": 584,
      "joy": 585,
      "give": 586,
      "iful": 587,
      "gard": 588,
      "beautiful": 589,
      "garden": 590,
      "joh": 591,
      "loud": 592,
      "sky": 593,
      "john": 594,
      "rong": 595,
      "igh": 596,
      "ama": 597,
      "ase": 598,
      "lly": 599,
      "sho": 600,
      "list": 601,
      "stay": 602,
      "ning": 603,
      "ple": 604,
      "cks": 605,
      "ople": 606,
      "still": 607,
      "people": 608,
      "both": 609,
      "family": 610,
      "ort": 611,
      "cu": 612,
      "lived": 613,
      "brave": 614,
      "animals": 615,
      "ground": 616,
      "while": 617,
      "walked": 618,
      "two": 619,
      "ell": 620,
      "ct": 621,
      "bad": 622,
      "hard": 623,
      "turn": 624,
      "ine": 625,
      "surpr": 626,
      "sure": 627,
      "should": 628,
      "won": 629,
      "kept": 630,
      "flew": 631,
      "ished": 632,
      "con": 633,
      "app": 634,
      "real": 635,
      "ised": 636,
      "ane": 637,
      "row": 638,
      "mum": 639,
      "keep": 640,
      "book": 641,
      "lucy": 642,
      "tru": 643,
      "clean": 644,
      "going": 645,
      "pic": 646,
      "before": 647,
      "hurt": 648,
      "called": 649,
      "share": 650,
      "sl": 651,
      "win": 652,
      "pretty": 653,
      "okay": 654,
      "clos": 655,
      "angry": 656,
      "fast": 657,
      "imp": 658,
      "feeling": 659,
      "illy": 660,
      "able": 661,
      "explore": 662,
      "cry": 663,
      "place": 664,
      "advent": 665,
      "kit": 666,
      "shiny": 667,
      "door": 668,
      "why": 669,
      "uck": 670,
      "ph": 671,
      "also": 672,
      "ied": 673,
      "doll": 674,
      "idea": 675,
      "lue": 676,
      "lot": 677,
      "opened": 678,
      "bob": 679,
      "work": 680,
      "mem": 681,
      "next": 682,
      "par": 683,
      "lie": 684,
      "set": 685,
      "walking": 686,
      "noise": 687,
      "em": 688,
      "finally": 689,
      "da": 690,
      "colo": 691,
      "grand": 692,
      "ild": 693,
      "ious": 694,
      "mar": 695,
      "ste": 696,
      "color": 697,
      "fish": 698,
      "tal": 699,
      "being": 700,
      "face": 701,
      "picked": 702,
      "clim": 703,
      "looking": 704,
      "ies": 705,
      "ren": 706,
      "food": 707,
      "hair": 708,
      "adventure": 709,
      "smile": 710,
      "quick": 711,
      "wait": 712,
      "dif": 713,
      "remem": 714,
      "les": 715,
      "ught": 716,
      "nodd": 717,
      "iced": 718,
      "dra": 719,
      "cook": 720,
      "may": 721,
      "hear": 722,
      "nodded": 723,
      "ask": 724,
      "night": 725,
      "ever": 726,
      "ture": 727,
      "great": 728,
      "forest": 729,
      "remember": 730,
      "enjoy": 731,
      "bye": 732,
      "used": 733,
      "ized": 734,
      "sue": 735,
      "less": 736,
      "ess": 737,
      "eyes": 738,
      "squ": 739,
      "own": 740,
      "vo": 741,
      "head": 742,
      "import": 743,
      "picture": 744,
      "stopped": 745,
      "blue": 746,
      "repl": 747,
      "sarah": 748,
      "listen": 749,
      "important": 750,
      "walk": 751,
      "year": 752,
      "near": 753,
      "ring": 754,
      "right": 755,
      "quickly": 756,
      "gan": 757,
      "dis": 758,
      "replied": 759,
      "ries": 760,
      "noticed": 761,
      "bun": 762,
      "slide": 763,
      "blo": 764,
      "rabbit": 765,
      "think": 766,
      "hands": 767,
      "rock": 768,
      "cream": 769,
      "tin": 770,
      "mon": 771,
      "ner": 772,
      "leave": 773,
      "showed": 774,
      "mor": 775,
      "daddy": 776,
      "tor": 777,
      "wonder": 778,
      "swing": 779,
      "strong": 780,
      "feren": 781,
      "differen": 782,
      "store": 783,
      "bl": 784,
      "irst": 785,
      "has": 786,
      "sound": 787,
      "been": 788,
      "became": 789,
      "amaz": 790,
      "jane": 791,
      "cake": 792,
      "stop": 793,
      "mean": 794,
      "goodbye": 795,
      "bright": 796,
      "rest": 797,
      "watch": 798,
      "dan": 799,
      "tell": 800,
      "tou": 801,
      "watched": 802,
      "voice": 803,
      "high": 804,
      "here": 805,
      "llow": 806,
      "ip": 807,
      "bow": 808,
      "mag": 809,
      "swe": 810,
      "boat": 811,
      "mis": 812,
      "maybe": 813,
      "bit": 814,
      "ready": 815,
      "sing": 816,
      "cho": 817,
      "different": 818,
      "follow": 819,
      "flowers": 820,
      "isy": 821,
      "stand": 822,
      "table": 823,
      "ung": 824,
      "dress": 825,
      "truck": 826,
      "tr": 827,
      "fro": 828,
      "ummy": 829,
      "closer": 830,
      "curi": 831,
      "ond": 832,
      "grabb": 833,
      "flower": 834,
      "leep": 835,
      "ired": 836,
      "fav": 837,
      "grabbed": 838,
      "stick": 839,
      "first": 840,
      "hello": 841,
      "deli": 842,
      "ward": 843,
      "warm": 844,
      "please": 845,
      "butter": 846,
      "flo": 847,
      "rough": 848,
      "jumped": 849,
      "curious": 850,
      "anymore": 851,
      "ff": 852,
      "grandma": 853,
      "three": 854,
      "bunny": 855,
      "sit": 856,
      "ket": 857,
      "fell": 858,
      "med": 859,
      "joe": 860,
      "cut": 861,
      "pie": 862,
      "ster": 863,
      "din": 864,
      "birds": 865,
      "light": 866,
      "ft": 867,
      "dro": 868,
      "key": 869,
      "laugh": 870,
      "sand": 871,
      "pul": 872,
      "helped": 873,
      "kid": 874,
      "ered": 875,
      "really": 876,
      "realized": 877,
      "ila": 878,
      "brother": 879,
      "yummy": 880,
      "pare": 881,
      "brea": 882,
      "does": 883,
      "ow": 884,
      "air": 885,
      "happened": 886,
      "ba": 887,
      "zy": 888,
      "lila": 889,
      "prin": 890,
      "gu": 891,
      "rel": 892,
      "favor": 893,
      "chen": 894,
      "kitchen": 895,
      "yel": 896,
      "grass": 897,
      "favorite": 898,
      "bal": 899,
      "began": 900,
      "only": 901,
      "times": 902,
      "fire": 903,
      "pain": 904,
      "reached": 905,
      "top": 906,
      "ash": 907,
      "story": 908,
      "open": 909,
      "benny": 910,
      "glad": 911,
      "daisy": 912,
      "through": 913,
      "having": 914,
      "ten": 915,
      "world": 916,
      "soft": 917,
      "done": 918,
      "paren": 919,
      "delic": 920,
      "himself": 921,
      "wel": 922,
      "tired": 923,
      "outed": 924,
      "coming": 925,
      "move": 926,
      "cra": 927,
      "piece": 928,
      "bor": 929,
      "magic": 930,
      "kids": 931,
      "pro": 932,
      "worry": 933,
      "col": 934,
      "tommy": 935,
      "cold": 936,
      "river": 937,
      "shouted": 938,
      "waved": 939,
      "pond": 940,
      "fill": 941,
      "cor": 942,
      "making": 943,
      "game": 944,
      "ient": 945,
      "catch": 946,
      "ater": 947,
      "dow": 948,
      "sweet": 949,
      "sn": 950,
      "sees": 951,
      "seen": 952,
      "cool": 953,
      "sally": 954,
      "fix": 955,
      "dark": 956,
      "prom": 957,
      "lady": 958,
      "billy": 959,
      "frog": 960,
      "surprise": 961,
      "cla": 962,
      "hopped": 963,
      "\".": 964,
      "close": 965,
      "sometimes": 966,
      "cked": 967,
      "tas": 968,
      "draw": 969,
      "mouse": 970,
      "funny": 971,
      "age": 972,
      "plan": 973,
      "parents": 974,
      "sat": 975,
      "touch": 976,
      "full": 977,
      "bab": 978,
      "ppy": 979,
      "wow": 980,
      "slow": 981,
      "worked": 982,
      "cket": 983,
      "carefully": 984,
      "surprised": 985,
      "ped": 986,
      "andy": 987,
      "oney": 988,
      "tra": 989,
      "trees": 990,
      "turned": 991,
      "doing": 992,
      "ons": 993,
      "pat": 994,
      "swim": 995,
      "wear": 996,
      "years": 997,
      "fl": 998,
      "wood": 999,
      "delicious": 1000,
      "held": 1001,
      "running": 1002,
      "pretend": 1003,
      "mess": 1004,
      "hind": 1005,
      "sleep": 1006,
      "behind": 1007,
      "needed": 1008,
      "tight": 1009,
      "lost": 1010,
      "remembered": 1011,
      "happily": 1012,
      "teddy": 1013,
      "farm": 1014,
      "looks": 1015,
      "yard": 1016,
      "ray": 1017,
      "sy": 1018,
      "wind": 1019,
      "herself": 1020,
      "hole": 1021,
      "cried": 1022,
      "name": 1023,
      "enjoyed": 1024,
      "climb": 1025,
      "baby": 1026,
      "ign": 1027,
      "blocks": 1028,
      "buy": 1029,
      "butterfly": 1030,
      "another": 1031,
      "duck": 1032,
      "yellow": 1033,
      "ation": 1034,
      "wished": 1035,
      "arri": 1036,
      "chil": 1037,
      "green": 1038,
      "ak": 1039,
      "gen": 1040,
      "dren": 1041,
      "children": 1042,
      "cars": 1043,
      "bag": 1044,
      "floor": 1045,
      "jim": 1046,
      "hold": 1047,
      "pet": 1048,
      "min": 1049,
      "window": 1050,
      "prince": 1051,
      "hill": 1052,
      "ju": 1053,
      "finished": 1054,
      "tall": 1055,
      "lesson": 1056,
      "bar": 1057,
      "molly": 1058,
      "paper": 1059,
      "everywhere": 1060,
      "likes": 1061,
      "far": 1062,
      "reed": 1063,
      "wrong": 1064,
      "cas": 1065,
      "understand": 1066,
      "contin": 1067,
      "continu": 1068,
      "ger": 1069,
      "anything": 1070,
      "asure": 1071,
      "everything": 1072,
      "arrived": 1073,
      "tri": 1074,
      "hung": 1075,
      "gra": 1076,
      "left": 1077,
      "friendly": 1078,
      "oken": 1079,
      "ross": 1080,
      "ds": 1081,
      "ced": 1082,
      "castle": 1083,
      "stran": 1084,
      "forgot": 1085,
      "someone": 1086,
      "filled": 1087,
      "wet": 1088,
      "gone": 1089,
      "vis": 1090,
      "broken": 1091,
      "dream": 1092,
      "creat": 1093,
      "ather": 1094,
      "mama": 1095,
      "hot": 1096,
      "agreed": 1097,
      "snow": 1098,
      "cookies": 1099,
      "dir": 1100,
      "mat": 1101,
      "pink": 1102,
      "most": 1103,
      "jen": 1104,
      "ield": 1105,
      "dinner": 1106,
      ".”": 1107,
      "ot": 1108,
      "train": 1109,
      "wer": 1110,
      "stu": 1111,
      "else": 1112,
      "hid": 1113,
      "erous": 1114,
      "ings": 1115,
      "ange": 1116,
      "que": 1117,
      "followed": 1118,
      "squir": 1119,
      "mother": 1120,
      "bug": 1121,
      "dr": 1122,
      "later": 1123,
      "amy": 1124,
      "colors": 1125,
      "moment": 1126,
      "wonderful": 1127,
      "wards": 1128,
      "fair": 1129,
      "continued": 1130,
      "zo": 1131,
      "build": 1132,
      "land": 1133,
      "squirrel": 1134,
      "might": 1135,
      "fect": 1136,
      "enough": 1137,
      "getting": 1138,
      "morning": 1139,
      "perfect": 1140,
      "pack": 1141,
      "oup": 1142,
      "lion": 1143,
      "ches": 1144,
      "stayed": 1145,
      "ike": 1146,
      "puppy": 1147,
      "cover": 1148,
      "bot": 1149,
      "trying": 1150,
      "!”": 1151,
      "others": 1152,
      "fall": 1153,
      "coun": 1154,
      "mus": 1155,
      "pen": 1156,
      "fur": 1157,
      "leaves": 1158,
      "tain": 1159,
      "icy": 1160,
      "nap": 1161,
      "spark": 1162,
      "few": 1163,
      "break": 1164,
      "fas": 1165,
      "miss": 1166,
      "av": 1167,
      "join": 1168,
      "climbed": 1169,
      "fight": 1170,
      "beach": 1171,
      "brought": 1172,
      "brown": 1173,
      "whis": 1174,
      "wall": 1175,
      "zz": 1176,
      "tw": 1177,
      "ated": 1178,
      "music": 1179,
      "wasn": 1180,
      "deep": 1181,
      "kno": 1182,
      "met": 1183,
      "oh": 1184,
      "sis": 1185,
      "bee": 1186,
      "ride": 1187,
      "ton": 1188,
      "song": 1189,
      "plain": 1190,
      "pping": 1191,
      "hungry": 1192,
      "ling": 1193,
      "pictures": 1194,
      "makes": 1195,
      "pes": 1196,
      "sear": 1197,
      "listened": 1198,
      "ze": 1199,
      "books": 1200,
      "well": 1201,
      "sail": 1202,
      "today": 1203,
      "poin": 1204,
      "dang": 1205,
      "grow": 1206,
      "wants": 1207,
      "clothe": 1208,
      "flying": 1209,
      "ballo": 1210,
      "strange": 1211,
      "clothes": 1212,
      "wi": 1213,
      "ele": 1214,
      "spl": 1215,
      "ance": 1216,
      "appear": 1217,
      "scary": 1218,
      "treat": 1219,
      "art": 1220,
      "waited": 1221,
      "amazed": 1222,
      "hi": 1223,
      "amazing": 1224,
      "white": 1225,
      "gi": 1226,
      "thy": 1227,
      "owner": 1228,
      "ja": 1229,
      "promised": 1230,
      "flu": 1231,
      "ence": 1232,
      "such": 1233,
      "talk": 1234,
      "ffy": 1235,
      "tail": 1236,
      "moral": 1237,
      "roll": 1238,
      "luck": 1239,
      "pulled": 1240,
      "jill": 1241,
      "fluffy": 1242,
      "bike": 1243,
      "fox": 1244,
      "woods": 1245,
      "rot": 1246,
      "shared": 1247,
      "alone": 1248,
      "pers": 1249,
      "silly": 1250,
      "towards": 1251,
      "pur": 1252,
      "pass": 1253,
      "colorful": 1254,
      "belie": 1255,
      "slowly": 1256,
      "igg": 1257,
      "mr": 1258,
      "hig": 1259,
      "grate": 1260,
      "magical": 1261,
      "hide": 1262,
      "grateful": 1263,
      "chair": 1264,
      "phone": 1265,
      "smiles": 1266,
      "faster": 1267,
      "treasure": 1268,
      "bran": 1269,
      "ased": 1270,
      "snack": 1271,
      "sister": 1272,
      "field": 1273,
      "drag": 1274,
      "sc": 1275,
      "heav": 1276,
      "helping": 1277,
      "bath": 1278,
      "worried": 1279,
      "money": 1280,
      "umb": 1281,
      "job": 1282,
      "quie": 1283,
      "asks": 1284,
      "visit": 1285,
      "must": 1286,
      "smel": 1287,
      "monster": 1288,
      "orn": 1289,
      "living": 1290,
      "shes": 1291,
      "lake": 1292,
      "party": 1293,
      "candy": 1294,
      "dry": 1295,
      "ually": 1296,
      "sign": 1297,
      "cloud": 1298,
      "mark": 1299,
      "chee": 1300,
      "higher": 1301,
      "bas": 1302,
      "town": 1303,
      "event": 1304,
      "ident": 1305,
      "explain": 1306,
      "board": 1307,
      "quiet": 1308,
      "mit": 1309,
      "mil": 1310,
      "emma": 1311,
      "cup": 1312,
      "runs": 1313,
      "stepped": 1314,
      "mind": 1315,
      "shine": 1316,
      "princess": 1317,
      "eating": 1318,
      "ming": 1319,
      "scream": 1320,
      "closed": 1321,
      "heavy": 1322,
      "basket": 1323,
      "bigger": 1324,
      "blan": 1325,
      "answ": 1326,
      "live": 1327,
      "outh": 1328,
      "ises": 1329,
      "je": 1330,
      "ses": 1331,
      "dangerous": 1332,
      "mouth": 1333,
      "reach": 1334,
      "ames": 1335,
      "pieces": 1336,
      "wouldn": 1337,
      "ment": 1338,
      "broke": 1339,
      "dance": 1340,
      "thre": 1341,
      "wr": 1342,
      "stood": 1343,
      "farmer": 1344,
      "pop": 1345,
      "dolls": 1346,
      "neigh": 1347,
      "thinks": 1348,
      "wag": 1349,
      "across": 1350,
      "jimmy": 1351,
      "wave": 1352,
      "nee": 1353,
      "cou": 1354,
      "race": 1355,
      "appeared": 1356,
      "free": 1357,
      "bel": 1358,
      "ose": 1359,
      "believe": 1360,
      "ctor": 1361,
      "bubb": 1362,
      "acc": 1363,
      "stuck": 1364,
      "ap": 1365,
      "plane": 1366,
      "fru": 1367,
      "gif": 1368,
      "soup": 1369,
      "welcome": 1370,
      "happen": 1371,
      "accident": 1372,
      "iting": 1373,
      "crying": 1374,
      "stead": 1375,
      "eleph": 1376,
      "monkey": 1377,
      "press": 1378,
      "paint": 1379,
      "threw": 1380,
      "dri": 1381,
      "heal": 1382,
      "di": 1383,
      "dirty": 1384,
      "lun": 1385,
      "dragon": 1386,
      "kis": 1387,
      "start": 1388,
      "youn": 1389,
      "shar": 1390,
      "along": 1391,
      "amp": 1392,
      "same": 1393,
      "eventually": 1394,
      "words": 1395,
      "lve": 1396,
      "ourse": 1397,
      "black": 1398,
      "gentle": 1399,
      "child": 1400,
      "twe": 1401,
      "teac": 1402,
      "mary": 1403,
      "instead": 1404,
      "longer": 1405,
      "tent": 1406,
      "teacher": 1407,
      "ible": 1408,
      "ary": 1409,
      "mitten": 1410,
      "clapped": 1411,
      "val": 1412,
      "upset": 1413,
      "scho": 1414,
      "school": 1415,
      "without": 1416,
      "cheered": 1417,
      "sug": 1418,
      "sang": 1419,
      "tiny": 1420,
      "bowl": 1421,
      "doctor": 1422,
      "bite": 1423,
      "button": 1424,
      "pull": 1425,
      "juice": 1426,
      "caught": 1427,
      "mine": 1428,
      "sea": 1429,
      "dropped": 1430,
      "blanket": 1431,
      "drink": 1432,
      "del": 1433,
      "tu": 1434,
      "wings": 1435,
      "sammy": 1436,
      "swings": 1437,
      "explained": 1438,
      "jour": 1439,
      "sli": 1440,
      "stree": 1441,
      "nearby": 1442,
      "fit": 1443,
      "woke": 1444,
      "bring": 1445,
      "?”": 1446,
      "stre": 1447,
      "stories": 1448,
      "balloon": 1449,
      "round": 1450,
      "pushed": 1451,
      "cheese": 1452,
      "mm": 1453,
      "smo": 1454,
      "ours": 1455,
      "singing": 1456,
      "drove": 1457,
      "course": 1458,
      "sunny": 1459,
      "wins": 1460,
      "young": 1461,
      "secre": 1462,
      "ull": 1463,
      "comfor": 1464,
      "jar": 1465,
      "though": 1466,
      "daught": 1467,
      "smart": 1468,
      "moved": 1469,
      "fairy": 1470,
      "ney": 1471,
      "elephant": 1472,
      "daughter": 1473,
      "turns": 1474,
      "sco": 1475,
      "body": 1476,
      "ier": 1477,
      "cray": 1478,
      "wish": 1479,
      "bush": 1480,
      "part": 1481,
      "exploring": 1482,
      "lone": 1483,
      "cow": 1484,
      "seemed": 1485,
      "mummy": 1486,
      "gs": 1487,
      "games": 1488,
      "street": 1489,
      "bucket": 1490,
      "twins": 1491,
      "hoped": 1492,
      "trou": 1493,
      "lonely": 1494,
      "sent": 1495,
      "forget": 1496,
      "lucky": 1497,
      "lunch": 1498,
      "wise": 1499,
      "noises": 1500,
      "rocks": 1501,
      "ountain": 1502,
      "taking": 1503,
      "hugs": 1504,
      "owl": 1505,
      "apple": 1506,
      "cce": 1507,
      "succe": 1508,
      "hit": 1509,
      "backyard": 1510,
      "ship": 1511,
      "rainbow": 1512,
      "stars": 1513,
      "mix": 1514,
      "shoes": 1515,
      "bs": 1516,
      "swam": 1517,
      "shook": 1518,
      "ps": 1519,
      "relie": 1520,
      "whenever": 1521,
      "purple": 1522,
      "throw": 1523,
      "pot": 1524,
      "fused": 1525,
      "sna": 1526,
      "shapes": 1527,
      "takes": 1528,
      "cir": 1529,
      "tower": 1530,
      "ect": 1531,
      "covered": 1532,
      "kiss": 1533,
      "sunshine": 1534,
      "gl": 1535,
      "add": 1536,
      "pan": 1537,
      "pocket": 1538,
      "cha": 1539,
      "late": 1540,
      "spin": 1541,
      "stone": 1542,
      "bench": 1543,
      "mittens": 1544,
      "creature": 1545,
      "driver": 1546,
      "ugg": 1547,
      "adventures": 1548,
      "nothing": 1549,
      "days": 1550,
      "kite": 1551,
      "shell": 1552,
      "fence": 1553,
      "pper": 1554,
      "coat": 1555,
      "zoom": 1556,
      "res": 1557,
      "cute": 1558,
      "pil": 1559,
      "boun": 1560,
      "hu": 1561,
      "onto": 1562,
      "neck": 1563,
      "accidentally": 1564,
      "quest": 1565,
      "heart": 1566,
      "sitting": 1567,
      "idge": 1568,
      "orange": 1569,
      "dist": 1570,
      "eas": 1571,
      "ined": 1572,
      "ions": 1573,
      "milk": 1574,
      "du": 1575,
      "pra": 1576,
      "nest": 1577,
      "coin": 1578,
      "naught": 1579,
      "secret": 1580,
      "naughty": 1581,
      "ness": 1582,
      "spoon": 1583,
      "comes": 1584,
      "fing": 1585,
      "arms": 1586,
      "rown": 1587,
      "carry": 1588,
      "cave": 1589,
      "jenny": 1590,
      "bought": 1591,
      "fan": 1592,
      "searched": 1593,
      "pig": 1594,
      "talked": 1595,
      "cozy": 1596,
      "band": 1597,
      "cal": 1598,
      "feels": 1599,
      "swimming": 1600,
      "wondered": 1601,
      "kitty": 1602,
      "uni": 1603,
      "shop": 1604,
      "touched": 1605,
      "push": 1606,
      "laughing": 1607,
      "wom": 1608,
      "belong": 1609,
      "sounds": 1610,
      "peace": 1611,
      "nic": 1612,
      "journey": 1613,
      "woman": 1614,
      "cing": 1615,
      "relieved": 1616,
      "ator": 1617,
      "wand": 1618,
      "gest": 1619,
      "stor": 1620,
      "nose": 1621,
      "ones": 1622,
      "busy": 1623,
      "neighbor": 1624,
      "tun": 1625,
      "rope": 1626,
      "loves": 1627,
      "pudd": 1628,
      "apples": 1629,
      "patient": 1630,
      "sick": 1631,
      "life": 1632,
      "raid": 1633,
      "afraid": 1634,
      "watching": 1635,
      "ti": 1636,
      "wra": 1637,
      "jake": 1638,
      "branch": 1639,
      "mel": 1640,
      "ider": 1641,
      "cer": 1642,
      "lar": 1643,
      "ade": 1644,
      "birth": 1645,
      "huge": 1646,
      "exciting": 1647,
      "danced": 1648,
      "mir": 1649,
      "rose": 1650,
      "power": 1651,
      "colle": 1652,
      "storm": 1653,
      "gigg": 1654,
      "forever": 1655,
      "blem": 1656,
      "problem": 1657,
      "birthday": 1658,
      "vill": 1659,
      "shelf": 1660,
      "bottle": 1661,
      "craw": 1662,
      "minut": 1663,
      "circle": 1664,
      "honey": 1665,
      "mach": 1666,
      "healthy": 1667,
      "knee": 1668,
      "vie": 1669,
      "hop": 1670,
      "jog": 1671,
      "emily": 1672,
      "asleep": 1673,
      "irt": 1674,
      "holding": 1675,
      "organ": 1676,
      "hor": 1677,
      "roar": 1678,
      "ently": 1679,
      "clever": 1680,
      "mail": 1681,
      "gather": 1682,
      "ian": 1683,
      "net": 1684,
      "spotted": 1685,
      "letter": 1686,
      "prot": 1687,
      "sharp": 1688,
      "gift": 1689,
      "berries": 1690,
      "smell": 1691,
      "ular": 1692,
      "meet": 1693,
      "fli": 1694,
      "resting": 1695,
      "inv": 1696,
      "gently": 1697,
      "epend": 1698,
      "hope": 1699,
      "smiling": 1700,
      "shout": 1701,
      "rubb": 1702,
      "des": 1703,
      "hey": 1704,
      "person": 1705,
      "respec": 1706,
      "tasty": 1707,
      "pointed": 1708,
      "ban": 1709,
      "tool": 1710,
      "snake": 1711,
      "ey": 1712,
      "wash": 1713,
      "jam": 1714,
      "eag": 1715,
      "vel": 1716,
      "spider": 1717,
      "sharing": 1718,
      "places": 1719,
      "tasted": 1720,
      "matter": 1721,
      "smelled": 1722,
      "shining": 1723,
      "kick": 1724,
      "orm": 1725,
      "picnic": 1726,
      "wide": 1727,
      "ens": 1728,
      "blew": 1729,
      "cheer": 1730,
      "inte": 1731,
      "whi": 1732,
      "wearing": 1733,
      "corn": 1734,
      "sie": 1735,
      "umber": 1736,
      "ize": 1737,
      "trouble": 1738,
      "feather": 1739,
      "pract": 1740,
      "gy": 1741,
      "which": 1742,
      "tightly": 1743,
      "spread": 1744,
      "splash": 1745,
      "ser": 1746,
      "these": 1747,
      "ars": 1748,
      "respect": 1749,
      "present": 1750,
      "act": 1751,
      "confused": 1752,
      "road": 1753,
      "word": 1754,
      "anyone": 1755,
      "bread": 1756,
      "nut": 1757,
      "whole": 1758,
      "oce": 1759,
      "puzz": 1760,
      "giant": 1761,
      "ocean": 1762,
      "path": 1763,
      "cookie": 1764,
      "bark": 1765,
      "clouds": 1766,
      "screamed": 1767,
      "seat": 1768,
      "ching": 1769,
      "fron": 1770,
      "impress": 1771,
      "front": 1772,
      "rat": 1773,
      "inc": 1774,
      "comfortable": 1775,
      "thin": 1776,
      "promise": 1777,
      "lay": 1778,
      "step": 1779,
      "cele": 1780,
      "teach": 1781,
      "carrot": 1782,
      "bubbles": 1783,
      "answer": 1784,
      "char": 1785,
      "cop": 1786,
      "jung": 1787,
      "imag": 1788,
      "jungle": 1789,
      "bru": 1790,
      "large": 1791,
      "dol": 1792,
      "gives": 1793,
      "test": 1794,
      "myster": 1795,
      "spe": 1796,
      "grandpa": 1797,
      "fruit": 1798,
      "cord": 1799,
      "trip": 1800,
      "tweet": 1801,
      "village": 1802,
      "dolph": 1803,
      "bur": 1804,
      "puts": 1805,
      "slid": 1806,
      "bul": 1807,
      "tid": 1808,
      "chased": 1809,
      "decor": 1810,
      "whistle": 1811,
      "celebr": 1812,
      "wild": 1813,
      "ashed": 1814,
      "crayons": 1815,
      "peaceful": 1816,
      "spent": 1817,
      "bus": 1818,
      "write": 1819,
      "last": 1820,
      "waiting": 1821,
      "rolled": 1822,
      "lock": 1823,
      "sandwi": 1824,
      "snowman": 1825,
      "dirt": 1826,
      "treats": 1827,
      "calm": 1828,
      "spit": 1829,
      "foot": 1830,
      "worm": 1831,
      "talking": 1832,
      "interesting": 1833,
      "taste": 1834,
      "hiding": 1835,
      "stret": 1836,
      "log": 1837,
      "goes": 1838,
      "shy": 1839,
      "shirt": 1840,
      "mmer": 1841,
      "chick": 1842,
      "feet": 1843,
      "helpful": 1844,
      "tea": 1845,
      "building": 1846,
      "ducks": 1847,
      "ity": 1848,
      "valu": 1849,
      "oven": 1850,
      "dest": 1851,
      "bugs": 1852,
      "tee": 1853,
      "lovely": 1854,
      "jumping": 1855,
      "corner": 1856,
      "cur": 1857,
      "ek": 1858,
      "rude": 1859,
      "pretended": 1860,
      "puddle": 1861,
      "gold": 1862,
      "zoo": 1863,
      "banan": 1864,
      "pile": 1865,
      "tidy": 1866,
      "teeth": 1867,
      "asha": 1868,
      "iger": 1869,
      "wheel": 1870,
      "drive": 1871,
      "protect": 1872,
      "ashamed": 1873,
      "mic": 1874,
      "eg": 1875,
      "plant": 1876,
      "furry": 1877,
      "blow": 1878,
      "tries": 1879,
      "bella": 1880,
      "forgive": 1881,
      "fold": 1882,
      "ipped": 1883,
      "past": 1884,
      "stra": 1885,
      "bell": 1886,
      "seek": 1887,
      "bat": 1888,
      "remind": 1889,
      "isa": 1890,
      "embar": 1891,
      "success": 1892,
      "eager": 1893,
      "cannot": 1894,
      "grab": 1895,
      "sparkly": 1896,
      "wore": 1897,
      "embarr": 1898,
      "mountain": 1899,
      "os": 1900,
      "stri": 1901,
      "shr": 1902,
      "fla": 1903,
      "embarrass": 1904,
      "van": 1905,
      "alice": 1906,
      "ella": 1907,
      "trust": 1908,
      "cross": 1909,
      "sup": 1910,
      "stir": 1911,
      "sugar": 1912,
      "ert": 1913,
      "breath": 1914,
      "fighting": 1915,
      "pour": 1916,
      "witch": 1917,
      "true": 1918,
      "chocol": 1919,
      "machine": 1920,
      "dolphin": 1921,
      "vous": 1922,
      "ann": 1923,
      "orrow": 1924,
      "tomorrow": 1925,
      "umpy": 1926,
      "selfish": 1927,
      "creative": 1928,
      "string": 1929,
      "ult": 1930,
      "spray": 1931,
      "lace": 1932,
      "pool": 1933,
      "den": 1934,
      "hum": 1935,
      "faces": 1936,
      "lisa": 1937,
      "thankful": 1938,
      "finish": 1939,
      "messy": 1940,
      "coura": 1941,
      "pillow": 1942,
      "hours": 1943,
      "rots": 1944,
      "chew": 1945,
      "minutes": 1946,
      "ighed": 1947,
      "spicy": 1948,
      "ladder": 1949,
      "fixed": 1950,
      "missed": 1951,
      "horse": 1952,
      "fig": 1953,
      "hone": 1954,
      "inted": 1955,
      "ugly": 1956,
      "knowing": 1957,
      "sque": 1958,
      "crab": 1959,
      "embarrassed": 1960,
      "pin": 1961,
      "meant": 1962,
      "kin": 1963,
      "count": 1964,
      "hang": 1965,
      "appo": 1966,
      "easy": 1967,
      "poli": 1968,
      "shake": 1969,
      "hospit": 1970,
      "cape": 1971,
      "colour": 1972,
      "lves": 1973,
      "hospital": 1974,
      "ank": 1975,
      "bedroom": 1976,
      "disappo": 1977,
      "nervous": 1978,
      "fear": 1979,
      "often": 1980,
      "carrots": 1981,
      "peter": 1982,
      "ror": 1983,
      "grew": 1984,
      "understood": 1985,
      "barked": 1986,
      "couch": 1987,
      "adow": 1988,
      "meadow": 1989,
      "taught": 1990,
      "polit": 1991,
      "sleepy": 1992,
      "landed": 1993,
      "passed": 1994,
      "aunt": 1995,
      "oth": 1996,
      "poor": 1997,
      "knocked": 1998,
      "polite": 1999,
      "mud": 2000,
      "deter": 2001,
      "stair": 2002,
      "returned": 2003,
      "chocolate": 2004,
      "warn": 2005,
      "determin": 2006,
      "pill": 2007,
      "soar": 2008,
      "smooth": 2009,
      "sau": 2010,
      "seed": 2011,
      "block": 2012,
      "generous": 2013,
      "stuff": 2014,
      "number": 2015,
      "rad": 2016,
      "change": 2017,
      "au": 2018,
      "paw": 2019,
      "drum": 2020,
      "micro": 2021,
      "disappointed": 2022,
      "ending": 2023,
      "moon": 2024,
      "fancy": 2025,
      "flies": 2026,
      "line": 2027,
      "pec": 2028,
      "card": 2029,
      "honest": 2030,
      "pir": 2031,
      "tie": 2032,
      "leaf": 2033,
      "elly": 2034,
      "class": 2035,
      "grace": 2036,
      "carried": 2037,
      "hears": 2038,
      "packed": 2039,
      "bill": 2040,
      "sour": 2041,
      "str": 2042,
      "wolf": 2043,
      "bridge": 2044,
      "snacks": 2045,
      "ially": 2046,
      "ni": 2047,
      "clear": 2048,
      "kitten": 2049,
      "dino": 2050,
      "songs": 2051,
      "saur": 2052,
      "sold": 2053,
      "ustr": 2054,
      "pas": 2055,
      "espec": 2056,
      "johnny": 2057,
      "penny": 2058,
      "especially": 2059,
      "tory": 2060,
      "leo": 2061,
      "rag": 2062,
      "frustr": 2063,
      "dinosaur": 2064,
      "cand": 2065,
      "gas": 2066,
      "chest": 2067,
      "clown": 2068,
      "scre": 2069,
      "gathered": 2070,
      "group": 2071,
      "fake": 2072,
      "mysterious": 2073,
      "usu": 2074,
      "forward": 2075,
      "waves": 2076,
      "cr": 2077,
      "hero": 2078,
      "gray": 2079,
      "grumpy": 2080,
      "jelly": 2081,
      "sack": 2082,
      "twirl": 2083,
      "smelly": 2084,
      "gate": 2085,
      "map": 2086,
      "necklace": 2087,
      "glue": 2088,
      "weak": 2089,
      "motor": 2090,
      "liz": 2091,
      "boo": 2092,
      "cloth": 2093,
      "emp": 2094,
      "tro": 2095,
      "eng": 2096,
      "robot": 2097,
      "jewel": 2098,
      "finger": 2099,
      "lif": 2100,
      "frustrated": 2101,
      "cran": 2102,
      "case": 2103,
      "glow": 2104,
      "ken": 2105,
      "sheep": 2106,
      "shore": 2107,
      "mirror": 2108,
      "vase": 2109,
      "almost": 2110,
      "exam": 2111,
      "plants": 2112,
      "joke": 2113,
      "drew": 2114,
      "berry": 2115,
      "dogs": 2116,
      "puzzle": 2117,
      "empty": 2118,
      "plate": 2119,
      "susie": 2120,
      "sticks": 2121,
      "thick": 2122,
      "skipped": 2123,
      "expens": 2124,
      "expensive": 2125,
      "pay": 2126,
      "hopping": 2127,
      "moving": 2128,
      "bored": 2129,
      "hidden": 2130,
      "fruits": 2131,
      "collect": 2132,
      "determined": 2133,
      "legs": 2134,
      "birdie": 2135,
      "closet": 2136,
      "dle": 2137,
      "tiger": 2138,
      "toes": 2139,
      "pray": 2140,
      "bake": 2141,
      "police": 2142,
      "tick": 2143,
      "ates": 2144,
      "figure": 2145,
      "cries": 2146,
      "sight": 2147,
      "towel": 2148,
      "save": 2149,
      "saved": 2150,
      "spoil": 2151,
      "izzy": 2152,
      "flut": 2153,
      "known": 2154,
      "oy": 2155,
      "sage": 2156,
      "feed": 2157,
      "supp": 2158,
      "?\".": 2159,
      "pair": 2160,
      "splashed": 2161,
      "branches": 2162,
      "powerful": 2163,
      "crane": 2164,
      "yelled": 2165,
      "wha": 2166,
      "iddle": 2167,
      "form": 2168,
      "taken": 2169,
      "standing": 2170,
      "glass": 2171,
      "stairs": 2172,
      "cage": 2173,
      "discovered": 2174,
      "flag": 2175,
      "answered": 2176,
      "excite": 2177,
      "leg": 2178,
      "aged": 2179,
      "vege": 2180,
      "smoke": 2181,
      "organized": 2182,
      "incred": 2183,
      "vegetable": 2184,
      "eld": 2185,
      "ned": 2186,
      "wip": 2187,
      "working": 2188,
      "pleased": 2189,
      "boring": 2190,
      "balloons": 2191,
      "excitement": 2192,
      "rid": 2193,
      "sighed": 2194,
      "lemon": 2195,
      "soap": 2196,
      "gets": 2197,
      "flash": 2198,
      "ignor": 2199,
      "fre": 2200,
      "mandy": 2201,
      "middle": 2202,
      "wro": 2203,
      "anc": 2204,
      "era": 2205,
      "lola": 2206,
      "suggest": 2207,
      "wrote": 2208,
      "chir": 2209,
      "content": 2210,
      "sailed": 2211,
      "ging": 2212,
      "swan": 2213,
      "rex": 2214,
      "fright": 2215,
      "tears": 2216,
      "tells": 2217,
      "ets": 2218,
      "licked": 2219,
      "spun": 2220,
      "measure": 2221,
      "bobby": 2222,
      "stones": 2223,
      "tv": 2224,
      "iness": 2225,
      "whisper": 2226,
      "son": 2227,
      "scarf": 2228,
      "yo": 2229,
      "asing": 2230,
      "izz": 2231,
      "wagged": 2232,
      "brush": 2233,
      "incredible": 2234,
      "team": 2235,
      "feathers": 2236,
      "pri": 2237,
      "allow": 2238,
      "lose": 2239,
      "movie": 2240,
      "kindness": 2241,
      "rh": 2242,
      "record": 2243,
      "locked": 2244,
      "ird": 2245,
      "illed": 2246,
      "wake": 2247,
      "eggs": 2248,
      "fil": 2249,
      "fic": 2250,
      "thanks": 2251,
      "disappeared": 2252,
      "usual": 2253,
      "whale": 2254,
      "fat": 2255,
      "rare": 2256,
      "lying": 2257,
      "giving": 2258,
      "giggled": 2259,
      "kni": 2260,
      "rank": 2261,
      "yourself": 2262,
      "runk": 2263,
      "parrot": 2264,
      "popcorn": 2265,
      "straw": 2266,
      "elder": 2267,
      "yog": 2268,
      "knife": 2269,
      "balance": 2270,
      "queen": 2271,
      "bone": 2272,
      "dizzy": 2273,
      "port": 2274,
      "zed": 2275,
      "ero": 2276,
      "libr": 2277,
      "note": 2278,
      "drawing": 2279,
      "twee": 2280,
      "questions": 2281,
      "cheerful": 2282,
      "grown": 2283,
      "noisy": 2284,
      "diffic": 2285,
      "batter": 2286,
      "tweety": 2287,
      "pi": 2288,
      "week": 2289,
      "boss": 2290,
      "chang": 2291,
      "ia": 2292,
      "sword": 2293,
      "become": 2294,
      "extra": 2295,
      "sadly": 2296,
      "jacket": 2297,
      "balls": 2298,
      "dancing": 2299,
      "match": 2300,
      "happening": 2301,
      "lifted": 2302,
      "smaller": 2303,
      "steal": 2304,
      "mistake": 2305,
      "tub": 2306,
      "managed": 2307,
      "ately": 2308,
      "bathroom": 2309,
      "wagon": 2310,
      "frightened": 2311,
      "difficult": 2312,
      "those": 2313,
      "lazy": 2314,
      "ruined": 2315,
      "offered": 2316,
      "ancient": 2317,
      "frag": 2318,
      "fred": 2319,
      "distance": 2320,
      "gust": 2321,
      "norm": 2322,
      "playground": 2323,
      "check": 2324,
      "boys": 2325,
      "ddy": 2326,
      "adventur": 2327,
      "crown": 2328,
      "calling": 2329,
      "cleaned": 2330,
      "walks": 2331,
      "patch": 2332,
      "normal": 2333,
      "illi": 2334,
      "sell": 2335,
      "eye": 2336,
      "vide": 2337,
      "nemo": 2338,
      "harm": 2339,
      "elderly": 2340,
      "ail": 2341,
      "dig": 2342,
      "drank": 2343,
      "gum": 2344,
      "trunk": 2345,
      "igator": 2346,
      "vest": 2347,
      "alligator": 2348,
      "terri": 2349,
      "picks": 2350,
      "adventurous": 2351,
      "pizz": 2352,
      "toug": 2353,
      "issor": 2354,
      "lift": 2355,
      "father": 2356,
      "enjoying": 2357,
      "scissor": 2358,
      "kissed": 2359,
      "shells": 2360,
      "scissors": 2361,
      "stamp": 2362,
      "nel": 2363,
      "chase": 2364,
      "astic": 2365,
      "snugg": 2366,
      "study": 2367,
      "mrs": 2368,
      "fragile": 2369,
      "dave": 2370,
      "horn": 2371,
      "lead": 2372,
      "already": 2373,
      "pete": 2374,
      "famous": 2375,
      "juicy": 2376,
      "lives": 2377,
      "ears": 2378,
      "louder": 2379,
      "sweetie": 2380,
      "circles": 2381,
      "tough": 2382,
      "barn": 2383,
      "knight": 2384,
      "load": 2385,
      "ellie": 2386,
      "cap": 2387,
      "tele": 2388,
      "boxes": 2389,
      "rocket": 2390,
      "slipped": 2391,
      "successful": 2392,
      "dish": 2393,
      "stal": 2394,
      "tern": 2395,
      "against": 2396,
      "yours": 2397,
      "deer": 2398,
      "needs": 2399,
      "engine": 2400,
      "bby": 2401,
      "rela": 2402,
      "learning": 2403,
      "bags": 2404,
      "spinning": 2405,
      "relax": 2406,
      "yarn": 2407,
      "hammer": 2408,
      "amond": 2409,
      "coll": 2410,
      "meal": 2411,
      "independ": 2412,
      "bubble": 2413,
      "diamond": 2414,
      "buttons": 2415,
      "wrap": 2416,
      "sandwich": 2417,
      "ating": 2418,
      "nosy": 2419,
      "using": 2420,
      "hurts": 2421,
      "stubb": 2422,
      "twig": 2423,
      "suggested": 2424,
      "lea": 2425,
      "orge": 2426,
      "nod": 2427,
      "weird": 2428,
      "hose": 2429,
      "spend": 2430,
      "fool": 2431,
      "pee": 2432,
      "realised": 2433,
      "bloom": 2434,
      "frown": 2435,
      "soph": 2436,
      "space": 2437,
      "lights": 2438,
      "added": 2439,
      "pizza": 2440,
      "fine": 2441,
      "vegetables": 2442,
      "ina": 2443,
      "loudly": 2444,
      "guard": 2445,
      "chicken": 2446,
      "courage": 2447,
      "collar": 2448,
      "depend": 2449,
      "pump": 2450,
      "brilli": 2451,
      "tem": 2452,
      "borrow": 2453,
      "search": 2454,
      "colourful": 2455,
      "stubborn": 2456,
      "snee": 2457,
      "asking": 2458,
      "erpill": 2459,
      "rich": 2460,
      "fork": 2461,
      "decide": 2462,
      "caterpill": 2463,
      "crystal": 2464,
      "guit": 2465,
      "invited": 2466,
      "independent": 2467,
      "foolish": 2468,
      "brilliant": 2469,
      "escape": 2470,
      "rode": 2471,
      "cart": 2472,
      "buzz": 2473,
      "turkey": 2474,
      "guess": 2475,
      "unique": 2476,
      "gara": 2477,
      "reg": 2478,
      "lex": 2479,
      "saying": 2480,
      "skin": 2481,
      "garage": 2482,
      "dom": 2483,
      "obed": 2484,
      "beak": 2485,
      "market": 2486,
      "bossy": 2487,
      "toby": 2488,
      "george": 2489,
      "counted": 2490,
      "banana": 2491,
      "oyster": 2492,
      "guitar": 2493,
      "obedient": 2494,
      "fu": 2495,
      "fountain": 2496,
      "gun": 2497,
      "men": 2498,
      "unusual": 2499,
      "notice": 2500,
      "tape": 2501,
      "stream": 2502,
      "wiped": 2503,
      "regular": 2504,
      "abo": 2505,
      "shows": 2506,
      "pattern": 2507,
      "dreamed": 2508,
      "walls": 2509,
      "above": 2510,
      "cil": 2511,
      "cro": 2512,
      "order": 2513,
      "safely": 2514,
      "clap": 2515,
      "trap": 2516,
      "pencil": 2517,
      "tools": 2518,
      "lid": 2519,
      "sca": 2520,
      "waf": 2521,
      "edge": 2522,
      "imed": 2523,
      "orig": 2524,
      "solve": 2525,
      "harder": 2526,
      "acce": 2527,
      "bottom": 2528,
      "rescu": 2529,
      "impressed": 2530,
      "waffle": 2531,
      "origin": 2532,
      "anut": 2533,
      "nods": 2534,
      "illa": 2535,
      "peanut": 2536,
      "aced": 2537,
      "fier": 2538,
      "bitter": 2539,
      "crawled": 2540,
      "caterpillar": 2541,
      "original": 2542,
      "apo": 2543,
      "alex": 2544,
      "cri": 2545,
      "tank": 2546,
      "toast": 2547,
      "loy": 2548,
      "coco": 2549,
      "clay": 2550,
      "gue": 2551,
      "painting": 2552,
      "scrat": 2553,
      "umbled": 2554,
      "dependable": 2555,
      "mired": 2556,
      "oo": 2557,
      "yell": 2558,
      "admired": 2559,
      "happiness": 2560,
      "shone": 2561,
      "comb": 2562,
      "comp": 2563,
      "cudd": 2564,
      "square": 2565,
      "bald": 2566,
      "breakfast": 2567,
      "fierce": 2568,
      "raven": 2569,
      "fridge": 2570,
      "picking": 2571,
      "stronger": 2572,
      "delight": 2573,
      "bounce": 2574,
      "rubbed": 2575,
      "aser": 2576,
      "sal": 2577,
      "bobo": 2578,
      "playful": 2579,
      "knows": 2580,
      "keeper": 2581,
      "boats": 2582,
      "medic": 2583,
      "humble": 2584,
      "changed": 2585,
      "terrible": 2586,
      "cone": 2587,
      "pal": 2588,
      "itch": 2589,
      "lean": 2590,
      "raft": 2591,
      "brownie": 2592,
      "succeed": 2593,
      "sauce": 2594,
      "library": 2595,
      "goal": 2596,
      "agree": 2597,
      "handed": 2598,
      "proudly": 2599,
      "turtle": 2600,
      "sounded": 2601,
      "tray": 2602,
      "city": 2603,
      "dull": 2604,
      "tag": 2605,
      "finding": 2606,
      "cleaning": 2607,
      "rella": 2608,
      "firework": 2609,
      "mighty": 2610,
      "sil": 2611,
      "chose": 2612,
      "butterflies": 2613,
      "joined": 2614,
      "umbrella": 2615,
      "squee": 2616,
      "loyal": 2617,
      "mask": 2618,
      "goat": 2619,
      "helps": 2620,
      "stove": 2621,
      "compass": 2622,
      "ducky": 2623,
      "beetle": 2624,
      "medicine": 2625,
      "bees": 2626,
      "compet": 2627,
      "discover": 2628,
      "mixed": 2629,
      "apolog": 2630,
      "hen": 2631,
      "ants": 2632,
      "island": 2633,
      "goose": 2634,
      "meow": 2635,
      "hurry": 2636,
      "parade": 2637,
      "crayon": 2638,
      "bled": 2639,
      "ature": 2640,
      "seal": 2641,
      "raced": 2642,
      "mole": 2643,
      "pear": 2644,
      "nicely": 2645,
      "kinds": 2646,
      "march": 2647,
      "choose": 2648,
      "laughs": 2649,
      "falls": 2650,
      "umbers": 2651,
      "sophie": 2652,
      "vol": 2653,
      "mosqu": 2654,
      "jazz": 2655,
      "coins": 2656,
      "practice": 2657,
      "serious": 2658,
      "competit": 2659,
      "mosqui": 2660,
      "mes": 2661,
      "numbers": 2662,
      "wed": 2663,
      "stat": 2664,
      "suit": 2665,
      "excla": 2666,
      "explored": 2667,
      "flex": 2668,
      "trum": 2669,
      "brothers": 2670,
      "guil": 2671,
      "persist": 2672,
      "tire": 2673,
      "melon": 2674,
      "gor": 2675,
      "sof": 2676,
      "enorm": 2677,
      "selves": 2678,
      "moms": 2679,
      "dove": 2680,
      "rac": 2681,
      "print": 2682,
      "fireman": 2683,
      "view": 2684,
      "valuable": 2685,
      "pipe": 2686,
      "enormous": 2687,
      "scare": 2688,
      "fort": 2689,
      "coal": 2690,
      "cano": 2691,
      "uring": 2692,
      "pol": 2693,
      "means": 2694,
      "pointing": 2695,
      "tweetie": 2696,
      "allowed": 2697,
      "pumpkin": 2698,
      "exclaimed": 2699,
      "flexible": 2700,
      "guilty": 2701,
      "cam": 2702,
      "pho": 2703,
      "rec": 2704,
      "ordin": 2705,
      "noon": 2706,
      "ribb": 2707,
      "unknown": 2708,
      "useful": 2709,
      "mike": 2710,
      "favour": 2711,
      "crazy": 2712,
      "ations": 2713,
      "dreams": 2714,
      "popular": 2715,
      "wrapped": 2716,
      "pirate": 2717,
      "compassion": 2718,
      "volcano": 2719,
      "photo": 2720,
      "ordinary": 2721,
      "cher": 2722,
      "lli": 2723,
      "arrow": 2724,
      "lolli": 2725,
      "forth": 2726,
      "excitedly": 2727,
      "cycle": 2728,
      "marble": 2729,
      "brightly": 2730,
      "shark": 2731,
      "super": 2732,
      "strugg": 2733,
      "lollipop": 2734,
      "iver": 2735,
      "ingred": 2736,
      "hats": 2737,
      "uncle": 2738,
      "!\".": 2739,
      "rushed": 2740,
      "cube": 2741,
      "belonged": 2742,
      "fresh": 2743,
      "statu": 2744,
      "favourite": 2745,
      "ingredient": 2746,
      "anx": 2747,
      "repe": 2748,
      "bol": 2749,
      "office": 2750,
      "neighb": 2751,
      "kicked": 2752,
      "seeds": 2753,
      "twirled": 2754,
      "chirp": 2755,
      "trumpet": 2756,
      "four": 2757,
      "nur": 2758,
      "sol": 2759,
      "sport": 2760,
      "shape": 2761,
      "showing": 2762,
      "trucks": 2763,
      "delicate": 2764,
      "impressive": 2765,
      "poured": 2766,
      "whispered": 2767,
      "harmless": 2768,
      "sofa": 2769,
      "kang": 2770,
      "tied": 2771,
      "task": 2772,
      "ado": 2773,
      "ages": 2774,
      "bushes": 2775,
      "handle": 2776,
      "earth": 2777,
      "deliver": 2778,
      "flashlight": 2779,
      "persistent": 2780,
      "anxious": 2781,
      "kangar": 2782,
      ",”": 2783,
      "pota": 2784,
      "icycle": 2785,
      "steps": 2786,
      "polish": 2787,
      "reli": 2788,
      "ley": 2789,
      "alous": 2790,
      "metal": 2791,
      "ured": 2792,
      "iest": 2793,
      "crack": 2794,
      "jealous": 2795,
      "reliable": 2796,
      "ience": 2797,
      "rise": 2798,
      "wing": 2799,
      "pepper": 2800,
      "painted": 2801,
      "sym": 2802,
      "collec": 2803,
      "curtain": 2804,
      "radi": 2805,
      "ris": 2806,
      "zip": 2807,
      "spell": 2808,
      "ighted": 2809,
      "graceful": 2810,
      "mosquito": 2811,
      "tummy": 2812,
      "ination": 2813,
      "thie": 2814,
      "buddy": 2815,
      "cush": 2816,
      "hairy": 2817,
      "joey": 2818,
      "delighted": 2819,
      "thinking": 2820,
      "celebrate": 2821,
      "gorilla": 2822,
      "camera": 2823,
      "five": 2824,
      "reward": 2825,
      "hay": 2826,
      "ilt": 2827,
      "shiver": 2828,
      "houses": 2829,
      "brace": 2830,
      "marry": 2831,
      "growing": 2832,
      "soldier": 2833,
      "symbol": 2834,
      "vine": 2835,
      "tony": 2836,
      "thirst": 2837,
      "wheat": 2838,
      "helmet": 2839,
      "travel": 2840,
      "angel": 2841,
      "driving": 2842,
      "warned": 2843,
      "kangaroo": 2844,
      "fed": 2845,
      "ya": 2846,
      "stup": 2847,
      "stru": 2848,
      "cod": 2849,
      "law": 2850,
      "wool": 2851,
      "tunnel": 2852,
      "charlie": 2853,
      "speed": 2854,
      "spoiled": 2855,
      "crocod": 2856,
      "stupid": 2857,
      "mas": 2858,
      "yet": 2859,
      "asses": 2860,
      "att": 2861,
      "tooth": 2862,
      "acorn": 2863,
      "sity": 2864,
      "given": 2865,
      "reminded": 2866,
      "gasped": 2867,
      "flute": 2868,
      "bicycle": 2869,
      "kim": 2870,
      "pup": 2871,
      "vi": 2872,
      "rece": 2873,
      "rice": 2874,
      "cob": 2875,
      "creatures": 2876,
      "pon": 2877,
      "wers": 2878,
      "weal": 2879,
      "hook": 2880,
      "friendship": 2881,
      "ugged": 2882,
      "moder": 2883,
      "bble": 2884,
      "skull": 2885,
      "missing": 2886,
      "track": 2887,
      "glasses": 2888,
      "cocoa": 2889,
      "ingredients": 2890,
      "ino": 2891,
      "washed": 2892,
      "cereal": 2893,
      "spilled": 2894,
      "news": 2895,
      "mule": 2896,
      "trick": 2897,
      "filthy": 2898,
      "base": 2899,
      "pok": 2900,
      "ener": 2901,
      "stumbled": 2902,
      "bean": 2903,
      "hoop": 2904,
      "carpet": 2905,
      "cheap": 2906,
      "seem": 2907,
      "thoughtful": 2908,
      "early": 2909,
      "badly": 2910,
      "swinging": 2911,
      "lively": 2912,
      "scoo": 2913,
      "crawl": 2914,
      "nuts": 2915,
      "reci": 2916,
      "bracelet": 2917,
      "thirsty": 2918,
      "lk": 2919,
      "yuck": 2920,
      "nobody": 2921,
      "placed": 2922,
      "hood": 2923,
      "helpless": 2924,
      "backpack": 2925,
      "truth": 2926,
      "decorate": 2927,
      "aid": 2928,
      "bump": 2929,
      "shad": 2930,
      "scat": 2931,
      "wine": 2932,
      "env": 2933,
      "bets": 2934,
      "themselves": 2935,
      "clum": 2936,
      "disgust": 2937,
      "telling": 2938,
      "sparkled": 2939,
      "carrying": 2940,
      "scale": 2941,
      "compassionate": 2942,
      "scatter": 2943,
      "dge": 2944,
      "sne": 2945,
      "stage": 2946,
      "roy": 2947,
      "quack": 2948,
      "careless": 2949,
      "pale": 2950,
      "comput": 2951,
      "doesn": 2952,
      "falling": 2953,
      "peeked": 2954,
      "vice": 2955,
      "ended": 2956,
      "chasing": 2957,
      "dead": 2958,
      "memor": 2959,
      "guin": 2960,
      "sleeping": 2961,
      "penguin": 2962,
      "chalk": 2963,
      "fingers": 2964,
      "pige": 2965,
      "riding": 2966,
      "modern": 2967,
      "sink": 2968,
      "tion": 2969,
      "gem": 2970,
      "shaking": 2971,
      "drop": 2972,
      "triang": 2973,
      "cupboard": 2974,
      "microphone": 2975,
      "neighbour": 2976,
      "scooter": 2977,
      "clumsy": 2978,
      "disgusting": 2979,
      "dough": 2980,
      "lamp": 2981,
      "ambul": 2982,
      "biggest": 2983,
      "nail": 2984,
      "spoke": 2985,
      "reading": 2986,
      "question": 2987,
      "univer": 2988,
      "practiced": 2989,
      "motorcycle": 2990,
      "cushion": 2991,
      "crocodile": 2992,
      "computer": 2993,
      "ambulance": 2994,
      "station": 2995,
      "cane": 2996,
      "jolly": 2997,
      "shadow": 2998,
      "package": 2999,
      "mission": 3000,
      "mim": 3001,
      "nature": 3002,
      "uli": 3003,
      "wallet": 3004,
      "dreaming": 3005,
      "rubber": 3006,
      "wealthy": 3007,
      "stack": 3008,
      "everyday": 3009,
      "torn": 3010,
      "cakes": 3011,
      "brighter": 3012,
      "opens": 3013,
      "bounced": 3014,
      "suppl": 3015,
      "statue": 3016,
      "pony": 3017,
      "mimi": 3018,
      "mild": 3019,
      "vator": 3020,
      "intell": 3021,
      "harry": 3022,
      "harsh": 3023,
      "beauty": 3024,
      "shoe": 3025,
      "elevator": 3026,
      "respectful": 3027,
      "rhino": 3028,
      "intellig": 3029,
      "len": 3030,
      "ob": 3031,
      "tled": 3032,
      "chu": 3033,
      "happier": 3034,
      "starts": 3035,
      "clock": 3036,
      "impat": 3037,
      "maria": 3038,
      "basketball": 3039,
      "scope": 3040,
      "wheels": 3041,
      "thunder": 3042,
      "beep": 3043,
      "neat": 3044,
      "barber": 3045,
      "searching": 3046,
      "tube": 3047,
      "slides": 3048,
      "stretched": 3049,
      "value": 3050,
      "candle": 3051,
      "ignorant": 3052,
      "betsy": 3053,
      "wigg": 3054,
      "behave": 3055,
      "cauli": 3056,
      "cooking": 3057,
      "avail": 3058,
      "sailor": 3059,
      "sandwiches": 3060,
      "bananas": 3061,
      "yogur": 3062,
      "leaving": 3063,
      "hun": 3064,
      "sle": 3065,
      "tti": 3066,
      "repair": 3067,
      "salad": 3068,
      "separ": 3069,
      "afternoon": 3070,
      "create": 3071,
      "shocked": 3072,
      "haircut": 3073,
      "design": 3074,
      "impatient": 3075,
      "cauliflower": 3076,
      "camp": 3077,
      "ire": 3078,
      "sher": 3079,
      "alert": 3080,
      "roof": 3081,
      "inde": 3082,
      "buck": 3083,
      "built": 3084,
      "comet": 3085,
      "sorts": 3086,
      "jumps": 3087,
      "destroy": 3088,
      "prize": 3089,
      "nurse": 3090,
      "thief": 3091,
      "yawn": 3092,
      "available": 3093,
      "yogurt": 3094,
      "ath": 3095,
      "bent": 3096,
      "kne": 3097,
      "ines": 3098,
      "itself": 3099,
      "lope": 3100,
      "iron": 3101,
      "ween": 3102,
      "paid": 3103,
      "monkeys": 3104,
      "rescue": 3105,
      "intelligent": 3106,
      "avo": 3107,
      "dug": 3108,
      "jet": 3109,
      "scold": 3110,
      "ws": 3111,
      "yay": 3112,
      "hetti": 3113,
      "ador": 3114,
      "spag": 3115,
      "shroom": 3116,
      "rant": 3117,
      "mushroom": 3118,
      "skip": 3119,
      "exper": 3120,
      "wander": 3121,
      "barking": 3122,
      "fearful": 3123,
      "screen": 3124,
      "spaghetti": 3125,
      "glo": 3126,
      "kay": 3127,
      "pun": 3128,
      "si": 3129,
      "wever": 3130,
      "however": 3131,
      "summer": 3132,
      "anywhere": 3133,
      "further": 3134,
      "microscope": 3135,
      "boots": 3136,
      "ffin": 3137,
      "sses": 3138,
      "toma": 3139,
      "advice": 3140,
      "chan": 3141,
      "oped": 3142,
      "muffin": 3143,
      "older": 3144,
      "ucked": 3145,
      "stops": 3146,
      "snif": 3147,
      "clapping": 3148,
      "notebook": 3149,
      "temple": 3150,
      "envious": 3151,
      "pigeon": 3152,
      "fant": 3153,
      "por": 3154,
      "switch": 3155,
      "tol": 3156,
      "anda": 3157,
      "erry": 3158,
      "iling": 3159,
      "beg": 3160,
      "uncomfortable": 3161,
      "host": 3162,
      "shut": 3163,
      "fisher": 3164,
      "cooked": 3165,
      "drawer": 3166,
      "danger": 3167,
      "meeting": 3168,
      "shouting": 3169,
      "obj": 3170,
      "chubby": 3171,
      "pit": 3172,
      "sin": 3173,
      "heli": 3174,
      "loop": 3175,
      "web": 3176,
      "parent": 3177,
      "mint": 3178,
      "counting": 3179,
      "giggle": 3180,
      "blowing": 3181,
      "adorable": 3182,
      "cab": 3183,
      "pis": 3184,
      "rele": 3185,
      "arian": 3186,
      "stared": 3187,
      "quite": 3188,
      "doggy": 3189,
      "writing": 3190,
      "troubled": 3191,
      "copter": 3192,
      "snuggled": 3193,
      "henry": 3194,
      "helicopter": 3195,
      "pistol": 3196,
      "az": 3197,
      "ding": 3198,
      "gir": 3199,
      "ges": 3200,
      "ghost": 3201,
      "leop": 3202,
      "nowhere": 3203,
      "forgave": 3204,
      "laun": 3205,
      "marched": 3206,
      "rolling": 3207,
      "treasures": 3208,
      "pushing": 3209,
      "stirred": 3210,
      "competitive": 3211,
      "triangle": 3212,
      "leopard": 3213,
      "clu": 3214,
      "ler": 3215,
      "ske": 3216,
      "enve": 3217,
      "lee": 3218,
      "leton": 3219,
      "god": 3220,
      "shield": 3221,
      "cact": 3222,
      "reef": 3223,
      "complain": 3224,
      "otter": 3225,
      "bathtub": 3226,
      "bulb": 3227,
      "skeleton": 3228,
      "aked": 3229,
      "send": 3230,
      "zi": 3231,
      "enth": 3232,
      "mechan": 3233,
      "names": 3234,
      "anyway": 3235,
      "raining": 3236,
      "shouldn": 3237,
      "holds": 3238,
      "barrel": 3239,
      "musician": 3240,
      "bandage": 3241,
      "speak": 3242,
      "jellyfish": 3243,
      "shade": 3244,
      "mechanic": 3245,
      "ahead": 3246,
      "ither": 3247,
      "atta": 3248,
      "spring": 3249,
      "affe": 3250,
      "fac": 3251,
      "gifted": 3252,
      "resist": 3253,
      "crash": 3254,
      "complet": 3255,
      "rhinocer": 3256,
      "ache": 3257,
      "resp": 3258,
      "carto": 3259,
      "blin": 3260,
      "miser": 3261,
      "medal": 3262,
      "colours": 3263,
      "windows": 3264,
      "purse": 3265,
      "giraffe": 3266,
      "cactus": 3267,
      "rhinoceros": 3268,
      "cus": 3269,
      "size": 3270,
      "va": 3271,
      "aff": 3272,
      "usi": 3273,
      "papa": 3274,
      "shovel": 3275,
      "doors": 3276,
      "phy": 3277,
      "sweater": 3278,
      "knob": 3279,
      "millie": 3280,
      "dishes": 3281,
      "hoping": 3282,
      "charming": 3283,
      "football": 3284,
      "salt": 3285,
      "envelope": 3286,
      "enthusi": 3287,
      "staff": 3288,
      "thread": 3289,
      "weigh": 3290,
      "trem": 3291,
      "trash": 3292,
      "pedal": 3293,
      "flour": 3294,
      "organize": 3295,
      "stretch": 3296,
      "lizard": 3297,
      "cabin": 3298,
      "cli": 3299,
      "mill": 3300,
      "oc": 3301,
      "pian": 3302,
      "ceiling": 3303,
      "rub": 3304,
      "grapes": 3305,
      "roared": 3306,
      "attic": 3307,
      "hunter": 3308,
      "gloom": 3309,
      "miserable": 3310,
      "bin": 3311,
      "dar": 3312,
      "kat": 3313,
      "vend": 3314,
      "return": 3315,
      "post": 3316,
      "poppy": 3317,
      "dear": 3318,
      "listening": 3319,
      "swee": 3320,
      "sticky": 3321,
      "airport": 3322,
      "napkin": 3323,
      "strawberry": 3324,
      "fisherman": 3325,
      "piano": 3326,
      "ax": 3327,
      "bull": 3328,
      "dess": 3329,
      "jess": 3330,
      "obs": 3331,
      "inse": 3332,
      "refused": 3333,
      "spike": 3334,
      "ected": 3335,
      "petal": 3336,
      "bears": 3337,
      "needle": 3338,
      "appreci": 3339,
      "headed": 3340,
      "twist": 3341,
      "knock": 3342,
      "freez": 3343,
      "zoomed": 3344,
      "pilot": 3345,
      "imagined": 3346,
      "golden": 3347,
      "since": 3348,
      "obser": 3349,
      "aper": 3350,
      "jun": 3351,
      "lions": 3352,
      "chance": 3353,
      "poke": 3354,
      "sunglasses": 3355,
      "shoot": 3356,
      "frogs": 3357,
      "zebra": 3358,
      "minute": 3359,
      "slept": 3360,
      "crow": 3361,
      "nit": 3362,
      "snap": 3363,
      "pole": 3364,
      "cats": 3365,
      "deaf": 3366,
      "rules": 3367,
      "vision": 3368,
      "cheek": 3369,
      "burn": 3370,
      "support": 3371,
      "message": 3372,
      "complete": 3373,
      "oat": 3374,
      "panda": 3375,
      "half": 3376,
      "attra": 3377,
      "rod": 3378,
      "somewhere": 3379,
      "cards": 3380,
      "meas": 3381,
      "tax": 3382,
      "restless": 3383,
      "sandbox": 3384,
      "belt": 3385,
      "pasta": 3386,
      "silver": 3387,
      "porch": 3388,
      "oak": 3389,
      "theart": 3390,
      "reinde": 3391,
      "admi": 3392,
      "impro": 3393,
      "steak": 3394,
      "choice": 3395,
      "stickers": 3396,
      "stranger": 3397,
      "perfectly": 3398,
      "bikes": 3399,
      "battery": 3400,
      "laundry": 3401,
      "vendor": 3402,
      "sweetheart": 3403,
      "dive": 3404,
      "putting": 3405,
      "quar": 3406,
      "ruby": 3407,
      "cture": 3408,
      "rested": 3409,
      "trave": 3410,
      "pretending": 3411,
      "wishes": 3412,
      "television": 3413,
      "gloomy": 3414,
      "towers": 3415,
      "meat": 3416,
      "peach": 3417,
      "paul": 3418,
      "pressed": 3419,
      "distur": 3420,
      "inclu": 3421,
      "trophy": 3422,
      "energy": 3423,
      "admire": 3424,
      "bree": 3425,
      "during": 3426,
      "nie": 3427,
      "hall": 3428,
      "ison": 3429,
      "cell": 3430,
      "robe": 3431,
      "spr": 3432,
      "sort": 3433,
      "evening": 3434,
      "lightning": 3435,
      "tricks": 3436,
      "luckily": 3437,
      "letters": 3438,
      "passport": 3439,
      "apologized": 3440,
      "dessert": 3441,
      "petals": 3442,
      "attract": 3443,
      "taxi": 3444,
      "hut": 3445,
      "lter": 3446,
      "ith": 3447,
      "asht": 3448,
      "shelter": 3449,
      "fortun": 3450,
      "magaz": 3451,
      "softly": 3452,
      "lands": 3453,
      "radish": 3454,
      "screw": 3455,
      "factory": 3456,
      "ashtray": 3457,
      "dust": 3458,
      "lim": 3459,
      "pages": 3460,
      "yield": 3461,
      "holes": 3462,
      "newsp": 3463,
      "peek": 3464,
      "polly": 3465,
      "eaten": 3466,
      "baking": 3467,
      "miner": 3468,
      "forgotten": 3469,
      "wife": 3470,
      "leaned": 3471,
      "kneel": 3472,
      "axe": 3473,
      "aero": 3474,
      "gn": 3475,
      "hive": 3476,
      "lilly": 3477,
      "rug": 3478,
      "wis": 3479,
      "sheet": 3480,
      "seeing": 3481,
      "sunset": 3482,
      "married": 3483,
      "sandcastle": 3484,
      "cups": 3485,
      "cham": 3486,
      "gain": 3487,
      "rever": 3488,
      "reco": 3489,
      "rick": 3490,
      "hadn": 3491,
      "enter": 3492,
      "pebble": 3493,
      "worth": 3494,
      "tear": 3495,
      "distant": 3496,
      "pirates": 3497,
      "video": 3498,
      "superhero": 3499,
      "fortunately": 3500,
      "zor": 3501,
      "toil": 3502,
      "unhappy": 3503,
      "cuss": 3504,
      "airplane": 3505,
      "closely": 3506,
      "climbing": 3507,
      "grabs": 3508,
      "freezer": 3509,
      "attractive": 3510,
      "recogn": 3511,
      "toilet": 3512,
      "dent": 3513,
      "nina": 3514,
      "pine": 3515,
      "vid": 3516,
      "infant": 3517,
      "remy": 3518,
      "modest": 3519,
      "finds": 3520,
      "discuss": 3521,
      "breathe": 3522,
      "trail": 3523,
      "counter": 3524,
      "fields": 3525,
      "valley": 3526,
      "shouts": 3527,
      "celebrated": 3528,
      "sprayed": 3529,
      "marbles": 3530,
      "knot": 3531,
      "yach": 3532,
      "attent": 3533,
      "weather": 3534,
      "popped": 3535,
      "clara": 3536,
      "surround": 3537,
      "steam": 3538,
      "grape": 3539,
      "sisted": 3540,
      "hipp": 3541,
      "mineral": 3542,
      "cof": 3543,
      "ded": 3544,
      "rema": 3545,
      "seum": 3546,
      "fee": 3547,
      "math": 3548,
      "spir": 3549,
      "museum": 3550,
      "llen": 3551,
      "rush": 3552,
      "skill": 3553,
      "comm": 3554,
      "ction": 3555,
      "drawings": 3556,
      "country": 3557,
      "appl": 3558,
      "uniform": 3559,
      "scolded": 3560,
      "blinked": 3561,
      "octop": 3562,
      "yacht": 3563,
      "coffee": 3564,
      "died": 3565,
      "invest": 3566,
      "secon": 3567,
      "iglo": 3568,
      "chor": 3569,
      "cooler": 3570,
      "claws": 3571,
      "visited": 3572,
      "delay": 3573,
      "throwing": 3574,
      "tuna": 3575,
      "puddles": 3576,
      "experience": 3577,
      "enthusiastic": 3578,
      "reindeer": 3579,
      "breeze": 3580,
      "attention": 3581,
      "rosie": 3582,
      "entered": 3583,
      "checked": 3584,
      "kingdom": 3585,
      "surf": 3586,
      "slice": 3587,
      "paws": 3588,
      "hippo": 3589,
      "ms": 3590,
      "erc": 3591,
      "exerc": 3592,
      "unlock": 3593,
      "razor": 3594,
      "frame": 3595,
      "greed": 3596,
      "flame": 3597,
      "imagine": 3598,
      "pinch": 3599,
      "club": 3600,
      "quarrel": 3601,
      "octopus": 3602,
      "investig": 3603,
      "nal": 3604,
      "ostri": 3605,
      "ye": 3606,
      "yum": 3607,
      "anchor": 3608,
      "bey": 3609,
      "costu": 3610,
      "grin": 3611,
      "pushes": 3612,
      "winter": 3613,
      "squash": 3614,
      "sandy": 3615,
      "planes": 3616,
      "split": 3617,
      "journal": 3618,
      "chain": 3619,
      "desk": 3620,
      "ticket": 3621,
      "radio": 3622,
      "zipper": 3623,
      "chamber": 3624,
      "igloo": 3625,
      "costume": 3626,
      "cree": 3627,
      "either": 3628,
      "laser": 3629,
      "alright": 3630,
      "immed": 3631,
      "ups": 3632,
      "chur": 3633,
      "fest": 3634,
      "short": 3635,
      "poss": 3636,
      "papers": 3637,
      "restau": 3638,
      "twink": 3639,
      "bouncing": 3640,
      "sprink": 3641,
      "greedy": 3642,
      "est": 3643,
      "tucked": 3644,
      "argue": 3645,
      "omas": 3646,
      "thomas": 3647,
      "golf": 3648,
      "smith": 3649,
      "suff": 3650,
      "perform": 3651,
      "dancer": 3652,
      "tutor": 3653,
      "comfort": 3654,
      "annie": 3655,
      "baseball": 3656,
      "avoc": 3657,
      "restaurant": 3658,
      "hic": 3659,
      "mug": 3660,
      "reve": 3661,
      "ckey": 3662,
      "kets": 3663,
      "vehic": 3664,
      "hockey": 3665,
      "ranch": 3666,
      "starting": 3667,
      "between": 3668,
      "steve": 3669,
      "twis": 3670,
      "pants": 3671,
      "egg": 3672,
      "stuffed": 3673,
      "investigate": 3674,
      "dic": 3675,
      "gie": 3676,
      "ival": 3677,
      "kate": 3678,
      "leash": 3679,
      "sting": 3680,
      "waving": 3681,
      "hedge": 3682,
      "shoulder": 3683,
      "display": 3684,
      "planet": 3685,
      "mustache": 3686,
      "signs": 3687,
      "pulls": 3688,
      "cows": 3689,
      "flapped": 3690,
      "church": 3691,
      "festival": 3692,
      "reveal": 3693,
      "jerry": 3694,
      "kers": 3695,
      "sim": 3696,
      "bother": 3697,
      "maze": 3698,
      "model": 3699,
      "bury": 3700,
      "magnet": 3701,
      "flood": 3702,
      "furnit": 3703,
      "beef": 3704,
      "jeep": 3705,
      "slipper": 3706,
      "frowned": 3707,
      "palace": 3708,
      "repeat": 3709,
      "potatoes": 3710,
      "tomato": 3711,
      "newspaper": 3712,
      "spirit": 3713,
      "furniture": 3714,
      "slippery": 3715,
      "zero": 3716,
      "chip": 3717,
      "cared": 3718,
      "sunflower": 3719,
      "comed": 3720,
      "ollie": 3721,
      "welcomed": 3722,
      "tripped": 3723,
      "point": 3724,
      "kisses": 3725,
      "belongs": 3726,
      "splashing": 3727,
      "classroom": 3728,
      "tionary": 3729,
      "creek": 3730,
      "immedi": 3731,
      "dictionary": 3732,
      "aches": 3733,
      "mand": 3734,
      "xy": 3735,
      "zzy": 3736,
      "alive": 3737,
      "unpack": 3738,
      "spear": 3739,
      "mop": 3740,
      "josh": 3741,
      "demand": 3742,
      "judge": 3743,
      "understanding": 3744,
      "trains": 3745,
      "squirrels": 3746,
      "hanging": 3747,
      "candles": 3748,
      "immediately": 3749,
      "pted": 3750,
      "regre": 3751,
      "novel": 3752,
      "oper": 3753,
      "antly": 3754,
      "emer": 3755,
      "mistakes": 3756,
      "whiskers": 3757,
      "sailing": 3758,
      "barks": 3759,
      "straight": 3760,
      "shrink": 3761,
      "cricket": 3762,
      "sneak": 3763,
      "memories": 3764,
      "magazine": 3765,
      "possible": 3766,
      "awe": 3767,
      "apr": 3768,
      "fought": 3769,
      "nation": 3770,
      "sla": 3771,
      "vroom": 3772,
      "intro": 3773,
      "encoura": 3774,
      "sock": 3775,
      "veter": 3776,
      "unfortunately": 3777,
      "rake": 3778,
      "caring": 3779,
      "armchair": 3780,
      "rabbits": 3781,
      "shoo": 3782,
      "tina": 3783,
      "trade": 3784,
      "breaks": 3785,
      "coats": 3786,
      "easily": 3787,
      "smells": 3788,
      "eagerly": 3789,
      "glowing": 3790,
      "freddy": 3791,
      "telephone": 3792,
      "yucky": 3793,
      "object": 3794,
      "introdu": 3795,
      "veterin": 3796,
      "brain": 3797,
      "tast": 3798,
      "ides": 3799,
      "saving": 3800,
      "vet": 3801,
      "history": 3802,
      "swung": 3803,
      "offer": 3804,
      "compl": 3805,
      "maggie": 3806,
      "dressed": 3807,
      "drops": 3808,
      "fireplace": 3809,
      "quietly": 3810,
      "puzzles": 3811,
      "osed": 3812,
      "flutter": 3813,
      "supposed": 3814,
      "accept": 3815,
      "cobweb": 3816,
      "separate": 3817,
      "wisdom": 3818,
      "regret": 3819,
      "veterinarian": 3820,
      "cable": 3821,
      "james": 3822,
      "olives": 3823,
      "sip": 3824,
      "isn": 3825,
      "suzy": 3826,
      "tap": 3827,
      "fog": 3828,
      "hardly": 3829,
      "hotel": 3830,
      "wire": 3831,
      "blankets": 3832,
      "shrimp": 3833,
      "pearl": 3834,
      "rachel": 3835,
      "applau": 3836,
      "ah": 3837,
      "bang": 3838,
      "sigh": 3839,
      "request": 3840,
      "ouch": 3841,
      "soil": 3842,
      "weep": 3843,
      "player": 3844,
      "grill": 3845,
      "quit": 3846,
      "prevent": 3847,
      "learnt": 3848,
      "feelings": 3849,
      "sparkle": 3850,
      "points": 3851,
      "wipe": 3852,
      "patiently": 3853,
      "invite": 3854,
      "pastel": 3855,
      "chewed": 3856,
      "captain": 3857,
      "collected": 3858,
      "poked": 3859,
      "ostrich": 3860,
      "lend": 3861,
      "sir": 3862,
      "wiz": 3863,
      "remove": 3864,
      "lab": 3865,
      "warmth": 3866,
      "created": 3867,
      "believed": 3868,
      "serve": 3869,
      "imagination": 3870,
      "decorations": 3871,
      "folded": 3872,
      "flav": 3873,
      "shakes": 3874,
      "ribbon": 3875,
      "solved": 3876,
      "aeroplane": 3877,
      "wizard": 3878,
      "ga": 3879,
      "gro": 3880,
      "jug": 3881,
      "mer": 3882,
      "theater": 3883,
      "stren": 3884,
      "hter": 3885,
      "covery": 3886,
      "makeup": 3887,
      "letting": 3888,
      "laughter": 3889,
      "parts": 3890,
      "discovery": 3891,
      "floated": 3892,
      "moves": 3893,
      "jogged": 3894,
      "mailbox": 3895,
      "curled": 3896,
      "jewelry": 3897,
      "acorns": 3898,
      "beans": 3899,
      "tornado": 3900,
      "respons": 3901,
      "streng": 3902,
      "drain": 3903,
      "mall": 3904,
      "san": 3905,
      "tip": 3906,
      "uce": 3907,
      "replace": 3908,
      "celer": 3909,
      "ideas": 3910,
      "abby": 3911,
      "fauce": 3912,
      "moments": 3913,
      "growled": 3914,
      "shrugged": 3915,
      "trusted": 3916,
      "cardboard": 3917,
      "suffer": 3918,
      "celery": 3919,
      "faucet": 3920,
      "ccer": 3921,
      "padd": 3922,
      "nore": 3923,
      "soccer": 3924,
      "rail": 3925,
      "homes": 3926,
      "wherever": 3927,
      "hearts": 3928,
      "disappear": 3929,
      "balan": 3930,
      "fallen": 3931,
      "deeper": 3932,
      "writ": 3933,
      "wags": 3934,
      "mmm": 3935,
      "human": 3936,
      "rhy": 3937,
      "yoga": 3938,
      "chirping": 3939,
      "strength": 3940,
      "apart": 3941,
      "olive": 3942,
      "ining": 3943,
      "eraser": 3944,
      "sty": 3945,
      "sters": 3946,
      "stable": 3947,
      "thr": 3948,
      "velve": 3949,
      "icing": 3950,
      "buried": 3951,
      "bravely": 3952,
      "bookshelf": 3953,
      "lotion": 3954,
      "ringing": 3955,
      "wandered": 3956,
      "jogging": 3957,
      "chickens": 3958,
      "vanished": 3959,
      "lou": 3960,
      "lumber": 3961,
      "nies": 3962,
      "vic": 3963,
      "onion": 3964,
      "herb": 3965,
      "admir": 3966,
      "moo": 3967,
      "peaches": 3968,
      "expected": 3969,
      "famil": 3970,
      "david": 3971,
      "bling": 3972,
      "following": 3973,
      "bathe": 3974,
      "guy": 3975,
      "sparkles": 3976,
      "crawling": 3977,
      "presents": 3978,
      "burned": 3979,
      "pillows": 3980,
      "ignored": 3981,
      "sneezed": 3982,
      "accepted": 3983,
      "succeeded": 3984,
      "struggling": 3985,
      "viol": 3986,
      "safar": 3987,
      "ali": 3988,
      "beam": 3989,
      "below": 3990,
      "seas": 3991,
      "ignore": 3992,
      "page": 3993,
      "izes": 3994,
      "hurting": 3995,
      "appro": 3996,
      "keeping": 3997,
      "ement": 3998,
      "fishing": 3999,
      "difference": 4000,
      "float": 4001,
      "castles": 4002,
      "matches": 4003,
      "zoe": 4004,
      "neighborhood": 4005,
      "supply": 4006,
      "vehicle": 4007,
      "violin": 4008,
      "rust": 4009,
      "plates": 4010,
      "tease": 4011,
      "skirt": 4012,
      "paused": 4013,
      "bookcase": 4014,
      "amazement": 4015,
      "chairs": 4016,
      "worms": 4017,
      "crossed": 4018,
      "university": 4019,
      "velvet": 4020,
      "fash": 4021,
      "tling": 4022,
      "argu": 4023,
      "sub": 4024,
      "prepar": 4025,
      "cation": 4026,
      "swamp": 4027,
      "settled": 4028,
      "provide": 4029,
      "collection": 4030,
      "sneeze": 4031,
      "punish": 4032,
      "cliff": 4033,
      "lime": 4034,
      "reverse": 4035,
      "..": 4036,
      "hits": 4037,
      "sen": 4038,
      "hesit": 4039,
      "incre": 4040,
      "refr": 4041,
      "herbs": 4042,
      "plastic": 4043,
      "raise": 4044,
      "helper": 4045,
      "achie": 4046,
      "poison": 4047,
      "safety": 4048,
      "setting": 4049,
      "proper": 4050,
      "jail": 4051,
      "luna": 4052,
      "scooped": 4053,
      "shopkeeper": 4054,
      "nutty": 4055,
      "igerator": 4056,
      "squeezed": 4057,
      "kayak": 4058,
      "cartoon": 4059,
      "avocado": 4060,
      "safari": 4061,
      "fashion": 4062,
      "refrigerator": 4063,
      "fut": 4064,
      "oil": 4065,
      "rul": 4066,
      "zig": 4067,
      "zag": 4068,
      "insisted": 4069,
      "image": 4070,
      "hated": 4071,
      "socks": 4072,
      "bene": 4073,
      "nament": 4074,
      "opera": 4075,
      "woof": 4076,
      "whip": 4077,
      "prepare": 4078,
      "disagreed": 4079,
      "happens": 4080,
      "mira": 4081,
      "teaching": 4082,
      "warning": 4083,
      "strawberries": 4084,
      "crib": 4085,
      "cuddled": 4086,
      "scattered": 4087,
      "sniffed": 4088,
      "begged": 4089,
      "insect": 4090,
      "skills": 4091,
      "emergen": 4092,
      "flavor": 4093,
      "grocer": 4094,
      "rhyth": 4095,
      "future": 4096,
      "aking": 4097,
      "inking": 4098,
      "beside": 4099,
      "unic": 4100,
      "lier": 4101,
      "plays": 4102,
      "root": 4103,
      "weren": 4104,
      "prun": 4105,
      "rooms": 4106,
      "permission": 4107,
      "heads": 4108,
      "follows": 4109,
      "score": 4110,
      "relaxed": 4111,
      "buzzing": 4112,
      "squeeze": 4113,
      "bumped": 4114,
      "operation": 4115,
      "rhythm": 4116,
      "'.": 4117,
      "digg": 4118,
      "war": 4119,
      "ins": 4120,
      "recomm": 4121,
      "thumb": 4122,
      "ves": 4123,
      "chim": 4124,
      "litter": 4125,
      "spade": 4126,
      "ctions": 4127,
      "claire": 4128,
      "mention": 4129,
      "soared": 4130,
      "loaded": 4131,
      "destroyed": 4132,
      "fy": 4133,
      "mick": 4134,
      "omed": 4135,
      "ornament": 4136,
      "seag": 4137,
      "unite": 4138,
      "spending": 4139,
      "cost": 4140,
      "ffic": 4141,
      "continue": 4142,
      "challen": 4143,
      "praised": 4144,
      "melted": 4145,
      "invit": 4146,
      "mystery": 4147,
      "folder": 4148,
      "meowed": 4149,
      "appreciate": 4150,
      "digging": 4151,
      "seagull": 4152,
      "cin": 4153,
      "glove": 4154,
      "sizes": 4155,
      "ana": 4156,
      "leak": 4157,
      "holid": 4158,
      "boot": 4159,
      "girls": 4160,
      "label": 4161,
      "afterwards": 4162,
      "calls": 4163,
      "panic": 4164,
      "weeks": 4165,
      "cherries": 4166,
      "vacation": 4167,
      "improve": 4168,
      "surrounded": 4169,
      "second": 4170,
      "subway": 4171,
      "beneath": 4172,
      "holiday": 4173,
      "bon": 4174,
      "ium": 4175,
      "jones": 4176,
      "beth": 4177,
      "licks": 4178,
      "sidewalk": 4179,
      "poem": 4180,
      "anytime": 4181,
      "surren": 4182,
      "blood": 4183,
      "painter": 4184,
      "taller": 4185,
      "whistling": 4186,
      "doctors": 4187,
      "slip": 4188,
      "bringing": 4189,
      "pastry": 4190,
      "jewels": 4191,
      "scratch": 4192,
      "collecting": 4193,
      "recei": 4194,
      "disturb": 4195,
      "chimney": 4196,
      "surrender": 4197,
      "cco": 4198,
      "gers": 4199,
      "lang": 4200,
      "heat": 4201,
      "restore": 4202,
      "!\",": 4203,
      "frank": 4204,
      "brocco": 4205,
      "turning": 4206,
      "pulling": 4207,
      "planned": 4208,
      "traffic": 4209,
      "fascin": 4210,
      "elephants": 4211,
      "dire": 4212,
      "jamie": 4213,
      "gym": 4214,
      "examine": 4215,
      "jokes": 4216,
      "scratched": 4217,
      "fireworks": 4218,
      "apron": 4219,
      "ruler": 4220,
      "langu": 4221,
      "broccoli": 4222,
      "ker": 4223,
      "tha": 4224,
      "aspo": 4225,
      "alarm": 4226,
      "hate": 4227,
      "birdcage": 4228,
      "teaspo": 4229,
      "fied": 4230,
      "settle": 4231,
      "bites": 4232,
      "sticker": 4233,
      "fixing": 4234,
      "mattre": 4235,
      "jenna": 4236,
      "actually": 4237,
      "destination": 4238,
      "strike": 4239,
      "auto": 4240,
      "yawned": 4241,
      "victory": 4242,
      "emergency": 4243,
      "aw": 4244,
      "dare": 4245,
      "swo": 4246,
      "tour": 4247,
      "veil": 4248,
      "myself": 4249,
      "happiest": 4250,
      "harbor": 4251,
      "watered": 4252,
      "earlier": 4253,
      "offic": 4254,
      "blueberries": 4255,
      "bunnies": 4256,
      "missile": 4257,
      "gifts": 4258,
      "melt": 4259,
      "eagle": 4260,
      "dolphins": 4261,
      "billboard": 4262,
      "attach": 4263,
      "twisted": 4264,
      "ake": 4265,
      "fer": 4266,
      "glitter": 4267,
      "lugg": 4268,
      "obey": 4269,
      "oxy": 4270,
      "toe": 4271,
      "washer": 4272,
      "lick": 4273,
      "chris": 4274,
      "quake": 4275,
      "ski": 4276,
      "grey": 4277,
      "comfy": 4278,
      "tracks": 4279,
      "hills": 4280,
      "freeze": 4281,
      "drinks": 4282,
      "throws": 4283,
      "fuel": 4284,
      "earthquake": 4285,
      "potato": 4286,
      "release": 4287,
      "zigzag": 4288,
      "mattress": 4289,
      "luggage": 4290,
      "crun": 4291,
      "hon": 4292,
      "lung": 4293,
      "tide": 4294,
      "tug": 4295,
      "waste": 4296,
      "stomach": 4297,
      "gotten": 4298,
      "bleed": 4299,
      "shower": 4300,
      "accompl": 4301,
      "hurri": 4302,
      "secrets": 4303,
      "encouraged": 4304,
      "ached": 4305,
      "mist": 4306,
      "anne": 4307,
      "copper": 4308,
      "mob": 4309,
      "rang": 4310,
      "brings": 4311,
      "dresses": 4312,
      "permit": 4313,
      "flea": 4314,
      "conf": 4315,
      "contain": 4316,
      "nightma": 4317,
      "petted": 4318,
      "fastest": 4319,
      "scur": 4320,
      "stretching": 4321,
      "reminder": 4322,
      "receive": 4323,
      "approached": 4324,
      "unicorn": 4325,
      "challenge": 4326,
      "teaspoon": 4327,
      "skipping": 4328,
      "brick": 4329,
      "none": 4330,
      "tore": 4331,
      "lets": 4332,
      "stad": 4333,
      "exact": 4334,
      "worse": 4335,
      "pow": 4336,
      "explorer": 4337,
      "sparkling": 4338,
      "easier": 4339,
      "dishwasher": 4340,
      "waffles": 4341,
      "palm": 4342,
      "solut": 4343,
      "universe": 4344,
      "observe": 4345,
      "measured": 4346,
      "exercise": 4347,
      "automob": 4348,
      "stadium": 4349,
      "\",": 4350,
      "somed": 4351,
      "refre": 4352,
      "nes": 4353,
      "spill": 4354,
      "peered": 4355,
      "bbled": 4356,
      "teasing": 4357,
      "reaches": 4358,
      "wardrobe": 4359,
      "sterday": 4360,
      "mountains": 4361,
      "sausage": 4362,
      "film": 4363,
      "jessie": 4364,
      "yesterday": 4365,
      "received": 4366,
      "powder": 4367,
      "someday": 4368,
      "refreshed": 4369,
      "abig": 4370,
      "die": 4371,
      "dried": 4372,
      "inch": 4373,
      "hers": 4374,
      "manage": 4375,
      "laid": 4376,
      "lawn": 4377,
      "decis": 4378,
      "crept": 4379,
      "spoons": 4380,
      "izing": 4381,
      "workers": 4382,
      "satis": 4383,
      "tongue": 4384,
      "villag": 4385,
      "mailman": 4386,
      "prayed": 4387,
      "lemonade": 4388,
      "chirped": 4389,
      "lena": 4390,
      "grinned": 4391,
      "mickey": 4392,
      "abigail": 4393,
      "bend": 4394,
      "milly": 4395,
      "tch": 4396,
      "ric": 4397,
      "lia": 4398,
      "esca": 4399,
      "everybody": 4400,
      "hurried": 4401,
      "shot": 4402,
      "wonders": 4403,
      "marks": 4404,
      "diary": 4405,
      "circus": 4406,
      "sliding": 4407,
      "stealing": 4408,
      "discovering": 4409,
      "photos": 4410,
      "cherry": 4411,
      "poking": 4412,
      "responsible": 4413,
      "admiring": 4414,
      "oxygen": 4415,
      "escaped": 4416,
      "file": 4417,
      "ki": 4418,
      "ky": 4419,
      "weight": 4420,
      "whatever": 4421,
      "pride": 4422,
      "opin": 4423,
      "spots": 4424,
      "works": 4425,
      "grandmother": 4426,
      "owned": 4427,
      "planted": 4428,
      "duckling": 4429,
      "strangers": 4430,
      "accidents": 4431,
      "glowed": 4432,
      "chirpy": 4433,
      "massage": 4434,
      "buckle": 4435,
      "junk": 4436,
      "oats": 4437,
      "thrilled": 4438,
      "hes": 4439,
      "orang": 4440,
      "beat": 4441,
      "weap": 4442,
      "hopes": 4443,
      "caut": 4444,
      "shopping": 4445,
      "voices": 4446,
      "floating": 4447,
      "horses": 4448,
      "washing": 4449,
      "flap": 4450,
      "patterns": 4451,
      "wednes": 4452,
      "radishes": 4453,
      "recognized": 4454,
      "crunch": 4455,
      "oranges": 4456,
      "!'": 4457,
      "bers": 4458,
      "iers": 4459,
      "shelves": 4460,
      "lest": 4461,
      "weighed": 4462,
      "gear": 4463,
      "stole": 4464,
      "quiz": 4465,
      "marching": 4466,
      "ladybug": 4467,
      "snowy": 4468,
      "clearing": 4469,
      "soldiers": 4470,
      "peanuts": 4471,
      "company": 4472,
      "language": 4473,
      "wednesday": 4474,
      "gloves": 4475,
      "exit": 4476,
      "upstairs": 4477,
      "lips": 4478,
      "urge": 4479,
      "overjoy": 4480,
      "mister": 4481,
      "chores": 4482,
      "catching": 4483,
      "flat": 4484,
      "climbs": 4485,
      "snapped": 4486,
      "problems": 4487,
      "bank": 4488,
      "lawy": 4489,
      "cabinet": 4490,
      "exactly": 4491,
      "overjoyed": 4492,
      "cones": 4493,
      "ls": 4494,
      "mun": 4495,
      "rum": 4496,
      "tig": 4497,
      "vy": 4498,
      "hest": 4499,
      "lecture": 4500,
      "robb": 4501,
      "racing": 4502,
      "wanting": 4503,
      "poo": 4504,
      "sunrise": 4505,
      "perfor": 4506,
      "pancakes": 4507,
      "brushes": 4508,
      "soaring": 4509,
      "june": 4510,
      "tastes": 4511,
      "beamed": 4512,
      "prepared": 4513,
      "invitation": 4514,
      "nightmare": 4515,
      "cious": 4516,
      "jan": 4517,
      "osity": 4518,
      "sits": 4519,
      "ury": 4520,
      "zipped": 4521,
      "onwards": 4522,
      "soak": 4523,
      "dolly": 4524,
      "chess": 4525,
      "lux": 4526,
      "surprises": 4527,
      "slim": 4528,
      "bowed": 4529,
      "curiosity": 4530,
      "paints": 4531,
      "tues": 4532,
      "zooming": 4533,
      "served": 4534,
      "sights": 4535,
      "agreement": 4536,
      "structure": 4537,
      "katie": 4538,
      "sprinkles": 4539,
      "fascinated": 4540,
      "hurricane": 4541,
      "lawyer": 4542,
      "chat": 4543,
      "reas": 4544,
      "roo": 4545,
      "area": 4546,
      "muddy": 4547,
      "precious": 4548,
      "sorting": 4549,
      "inky": 4550,
      "rained": 4551,
      "perfu": 4552,
      "underground": 4553,
      "winning": 4554,
      "steel": 4555,
      "firemen": 4556,
      "highest": 4557,
      "screams": 4558,
      "comforted": 4559,
      "decorated": 4560,
      "crashed": 4561,
      "villagers": 4562,
      "perfume": 4563,
      "bare": 4564,
      "ef": 4565,
      "gina": 4566,
      "mpoo": 4567,
      "pies": 4568,
      "vies": 4569,
      "tonight": 4570,
      "beha": 4571,
      "boom": 4572,
      "movies": 4573,
      "ects": 4574,
      "shampoo": 4575,
      "pause": 4576,
      "wondering": 4577,
      "wagging": 4578,
      "relief": 4579,
      "stripes": 4580,
      "squeak": 4581,
      "cuddle": 4582,
      "pupil": 4583,
      "released": 4584,
      "kneeled": 4585,
      "revealed": 4586,
      "simple": 4587,
      "prune": 4588,
      "bones": 4589,
      "sed": 4590,
      "orts": 4591,
      "soaked": 4592,
      "west": 4593,
      "aded": 4594,
      "lizz": 4595,
      "hoppy": 4596,
      "staring": 4597,
      "sadness": 4598,
      "items": 4599,
      "kindly": 4600,
      "contro": 4601,
      "danny": 4602,
      "sings": 4603,
      "startled": 4604,
      "blackboard": 4605,
      "scoop": 4606,
      "tune": 4607,
      "rubbing": 4608,
      "rides": 4609,
      "stamps": 4610,
      "studying": 4611,
      "twigs": 4612,
      "tremble": 4613,
      "remained": 4614,
      "properly": 4615,
      "mentioned": 4616,
      "cautious": 4617,
      "slimy": 4618,
      "equ": 4619,
      "relu": 4620,
      "safer": 4621,
      "momo": 4622,
      "ripped": 4623,
      "stolen": 4624,
      "ctantly": 4625,
      "wooden": 4626,
      "markers": 4627,
      "mouths": 4628,
      "nicer": 4629,
      "cheering": 4630,
      "seats": 4631,
      "snuggles": 4632,
      "ordered": 4633,
      "polishing": 4634,
      "memory": 4635,
      "siren": 4636,
      "traveled": 4637,
      "demanded": 4638,
      "regretted": 4639,
      "weapon": 4640,
      "luxury": 4641,
      "reluctantly": 4642,
      "onions": 4643,
      "ising": 4644,
      "youth": 4645,
      "unlocked": 4646,
      "neath": 4647,
      "fetch": 4648,
      "aren": 4649,
      "cot": 4650,
      "brand": 4651,
      "acting": 4652,
      "underneath": 4653,
      "shoulders": 4654,
      "studied": 4655,
      "buildings": 4656,
      "practicing": 4657,
      "hanger": 4658,
      "strum": 4659,
      "selling": 4660,
      "repeated": 4661,
      "nails": 4662,
      "six": 4663,
      "measuring": 4664,
      "travell": 4665,
      "solution": 4666,
      "decision": 4667,
      "opinion": 4668,
      "crunchy": 4669,
      "control": 4670,
      "cind": 4671,
      "eter": 4672,
      "fab": 4673,
      "knel": 4674,
      "lines": 4675,
      "vity": 4676,
      "ases": 4677,
      "ashes": 4678,
      "loving": 4679,
      "mometer": 4680,
      "lic": 4681,
      "raised": 4682,
      "thermometer": 4683,
      "peel": 4684,
      "mikey": 4685,
      "frosting": 4686,
      "darkness": 4687,
      "matt": 4688,
      "student": 4689,
      "packing": 4690,
      "jamas": 4691,
      "flapping": 4692,
      "squeal": 4693,
      "pencils": 4694,
      "katy": 4695,
      "style": 4696,
      "officer": 4697,
      "confident": 4698,
      "fabric": 4699,
      "knelt": 4700,
      "pip": 4701,
      "instru": 4702,
      "irts": 4703,
      "ents": 4704,
      "motion": 4705,
      "deal": 4706,
      "dragged": 4707,
      "oysters": 4708,
      "fuzzy": 4709,
      "struggled": 4710,
      "struck": 4711,
      "neighbourhood": 4712,
      "balanced": 4713,
      "bleeding": 4714,
      "scurried": 4715,
      "automobile": 4716,
      "ago": 4717,
      "text": 4718,
      "vin": 4719,
      "encourage": 4720,
      "amb": 4721,
      "weed": 4722,
      "entire": 4723,
      "ranger": 4724,
      "chef": 4725,
      "stored": 4726,
      "budge": 4727,
      "sunlight": 4728,
      "ledge": 4729,
      "blink": 4730,
      "choo": 4731,
      "dresser": 4732,
      "julie": 4733,
      "drinking": 4734,
      "jeff": 4735,
      "mixing": 4736,
      "brushed": 4737,
      "peeking": 4738,
      "wiggly": 4739,
      "punished": 4740,
      "attached": 4741,
      "dentist": 4742,
      "families": 4743,
      "barely": 4744,
      "texture": 4745,
      "cure": 4746,
      "gree": 4747,
      "hunt": 4748,
      "jay": 4749,
      "wre": 4750,
      "sages": 4751,
      "ckets": 4752,
      "pepp": 4753,
      "navy": 4754,
      "knowledge": 4755,
      "sunday": 4756,
      "eats": 4757,
      "perched": 4758,
      "staying": 4759,
      "realize": 4760,
      "worker": 4761,
      "bunch": 4762,
      "delivery": 4763,
      "breaking": 4764,
      "crabs": 4765,
      "touching": 4766,
      "trapped": 4767,
      "naps": 4768,
      "whistled": 4769,
      "visiting": 4770,
      "organizing": 4771,
      "roaring": 4772,
      "celebration": 4773,
      "guessed": 4774,
      "menu": 4775,
      "camping": 4776,
      "gained": 4777,
      "shooting": 4778,
      "introduce": 4779,
      "gazed": 4780,
      "satisfied": 4781,
      "tuesday": 4782,
      "broom": 4783,
      "ka": 4784,
      "pigg": 4785,
      "ities": 4786,
      "riage": 4787,
      "chases": 4788,
      "feast": 4789,
      "robby": 4790,
      "carl": 4791,
      "ecting": 4792,
      "peck": 4793,
      "pets": 4794,
      "keeps": 4795,
      "vowed": 4796,
      "sweat": 4797,
      "baked": 4798,
      "printer": 4799,
      "sweeties": 4800,
      "claps": 4801,
      "ourselves": 4802,
      "pinched": 4803,
      "liza": 4804,
      "apologize": 4805,
      "cartoons": 4806,
      "trembling": 4807,
      "landscape": 4808,
      "twinkling": 4809,
      "sighs": 4810,
      "achieve": 4811,
      "instructions": 4812,
      ".'": 4813,
      "cts": 4814,
      "cash": 4815,
      "fits": 4816,
      "ense": 4817,
      "unexpected": 4818,
      "hoot": 4819,
      "sports": 4820,
      "umes": 4821,
      "jojo": 4822,
      "worries": 4823,
      "ruin": 4824,
      "acti": 4825,
      "surface": 4826,
      "winner": 4827,
      "sweets": 4828,
      "purred": 4829,
      "melting": 4830,
      "giggling": 4831,
      "vanish": 4832,
      "figured": 4833,
      "competition": 4834,
      "shivering": 4835,
      "recommend": 4836,
      "swooped": 4837,
      "bumpy": 4838,
      "eight": 4839,
      "sway": 4840,
      "stool": 4841,
      "sides": 4842,
      "tam": 4843,
      "zing": 4844,
      "”.": 4845,
      "aster": 4846,
      "loe": 4847,
      "becoming": 4848,
      "timer": 4849,
      "united": 4850,
      "chloe": 4851,
      "downstairs": 4852,
      "bbles": 4853,
      "waits": 4854,
      "parked": 4855,
      "situ": 4856,
      "muscle": 4857,
      "sailboat": 4858,
      "screaming": 4859,
      "pouring": 4860,
      "recorded": 4861,
      "shivered": 4862,
      "including": 4863,
      "guys": 4864,
      "lizzie": 4865,
      "ib": 4866,
      "rist": 4867,
      "zie": 4868,
      "inst": 4869,
      "secure": 4870,
      "dot": 4871,
      "chuck": 4872,
      "christ": 4873,
      "feli": 4874,
      "susan": 4875,
      "suzie": 4876,
      "lap": 4877,
      "decides": 4878,
      "brid": 4879,
      "pajamas": 4880,
      "puff": 4881,
      "cub": 4882,
      "rocking": 4883,
      "cutting": 4884,
      "babies": 4885,
      "bars": 4886,
      "growling": 4887,
      "bouncy": 4888,
      "stirring": 4889,
      "spraying": 4890,
      "coloured": 4891,
      "dinosaurs": 4892,
      "twirling": 4893,
      "price": 4894,
      "horns": 4895,
      "blooming": 4896,
      "supplies": 4897,
      "wiggled": 4898,
      "remain": 4899,
      "increase": 4900,
      "costumes": 4901,
      "cautiously": 4902,
      "license": 4903,
      "wreck": 4904,
      "fir": 4905,
      "freed": 4906,
      "scra": 4907,
      "heel": 4908,
      "sore": 4909,
      "goodnight": 4910,
      "buzzy": 4911,
      "treehouse": 4912,
      "angled": 4913,
      "conne": 4914,
      "remembers": 4915,
      "squish": 4916,
      "storekeeper": 4917,
      "blouse": 4918,
      "ipment": 4919,
      "froze": 4920,
      "patience": 4921,
      "sparks": 4922,
      "strip": 4923,
      "drums": 4924,
      "rescued": 4925,
      "buckets": 4926,
      "applaud": 4927,
      "santa": 4928,
      "tigers": 4929,
      "roots": 4930,
      "equipment": 4931,
      "cindy": 4932,
      "christmas": 4933,
      "bridges": 4934,
      "firm": 4935,
      "cous": 4936,
      "cers": 4937,
      "cast": 4938,
      "ks": 4939,
      "oas": 4940,
      "pite": 4941,
      "tugged": 4942,
      "stem": 4943,
      "thorn": 4944,
      "exha": 4945,
      "hoo": 4946,
      "outdoors": 4947,
      "smar": 4948,
      "ssed": 4949,
      "pockets": 4950,
      "shaped": 4951,
      "forehead": 4952,
      "jackie": 4953,
      "marriage": 4954,
      "single": 4955,
      "buying": 4956,
      "arrive": 4957,
      "jacob": 4958,
      "mixer": 4959,
      "despite": 4960,
      "burning": 4961,
      "usually": 4962,
      "lizzy": 4963,
      "towels": 4964,
      "bloomed": 4965,
      "ribbons": 4966,
      "sneaked": 4967,
      "muffins": 4968,
      "sniff": 4969,
      "begin": 4970,
      "observed": 4971,
      "disturbed": 4972,
      "recognize": 4973,
      "argued": 4974,
      "grocery": 4975,
      "situation": 4976,
      "oasis": 4977,
      "east": 4978,
      "lul": 4979,
      "pitch": 4980,
      "pebbles": 4981,
      "abi": 4982,
      "sadie": 4983,
      "uses": 4984,
      "powers": 4985,
      "comple": 4986,
      "winked": 4987,
      "steep": 4988,
      "month": 4989,
      "keys": 4990,
      "princesses": 4991,
      "matched": 4992,
      "bathrobe": 4993,
      "machines": 4994,
      "network": 4995,
      "teaches": 4996,
      "chewing": 4997,
      "polished": 4998,
      "clowns": 4999,
      "crumb": 5000,
      "paintings": 5001,
      "crackers": 5002,
      "basement": 5003,
      "shadows": 5004,
      "objects": 5005,
      "pedals": 5006,
      "completely": 5007,
      "pastels": 5008,
      "cashier": 5009,
      "felix": 5010,
      "exhaust": 5011,
      "--": 5012,
      "stella": 5013,
      "endar": 5014,
      "momma": 5015,
      "shh": 5016,
      "faced": 5017,
      "mies": 5018,
      "bert": 5019,
      "shined": 5020,
      "acted": 5021,
      "shock": 5022,
      "pleasure": 5023,
      "colored": 5024,
      "marked": 5025,
      "martha": 5026,
      "maya": 5027,
      "blueberry": 5028,
      "passing": 5029,
      "reaching": 5030,
      "rainbows": 5031,
      "pigs": 5032,
      "calendar": 5033,
      "blows": 5034,
      "recording": 5035,
      "librarian": 5036,
      "salty": 5037,
      "curtains": 5038,
      "custom": 5039,
      "slap": 5040,
      "gaze": 5041,
      "accomplish": 5042,
      "completed": 5043,
      "exhausted": 5044,
      "cough": 5045,
      "glee": 5046,
      "mice": 5047,
      "mater": 5048,
      "oli": 5049,
      "removed": 5050,
      "hael": 5051,
      "ility": 5052,
      "leather": 5053,
      "adam": 5054,
      "rob": 5055,
      "raind": 5056,
      "shirts": 5057,
      "luke": 5058,
      "hugging": 5059,
      "waist": 5060,
      "rudolph": 5061,
      "creation": 5062,
      "marie": 5063,
      "importance": 5064,
      "rocked": 5065,
      "proj": 5066,
      "fairies": 5067,
      "drif": 5068,
      "horiz": 5069,
      "michael": 5070,
      "quacked": 5071,
      "cheeks": 5072,
      "applauded": 5073,
      "paddled": 5074,
      "arguing": 5075,
      "bongo": 5076,
      "direction": 5077,
      "material": 5078,
      "raindro": 5079,
      "dies": 5080,
      "eva": 5081,
      "gran": 5082,
      "instrum": 5083,
      "iders": 5084,
      "loose": 5085,
      "ripe": 5086,
      "oked": 5087,
      "nets": 5088,
      "bobb": 5089,
      "chie": 5090,
      "spiders": 5091,
      "coo": 5092,
      "wallow": 5093,
      "annah": 5094,
      "beds": 5095,
      "kites": 5096,
      "filling": 5097,
      "patted": 5098,
      "windy": 5099,
      "judy": 5100,
      "signed": 5101,
      "piles": 5102,
      "deser": 5103,
      "strings": 5104,
      "tickets": 5105,
      "suppor": 5106,
      "flags": 5107,
      "wedding": 5108,
      "lollipops": 5109,
      "tomatoes": 5110,
      "crowd": 5111,
      "slapped": 5112,
      "effort": 5113,
      "squealed": 5114,
      "crumbs": 5115,
      "horizon": 5116,
      "?'": 5117,
      "blu": 5118,
      "itor": 5119,
      "merry": 5120,
      "rr": 5121,
      "todd": 5122,
      "ham": 5123,
      "stare": 5124,
      "cky": 5125,
      "plent": 5126,
      "somebody": 5127,
      "whee": 5128,
      "rance": 5129,
      "urged": 5130,
      "watermelon": 5131,
      "bedtime": 5132,
      "contest": 5133,
      "disagree": 5134,
      "dancers": 5135,
      "cuts": 5136,
      "baa": 5137,
      "closes": 5138,
      "pretends": 5139,
      "creating": 5140,
      "answers": 5141,
      "younger": 5142,
      "protecting": 5143,
      "inviting": 5144,
      "kicking": 5145,
      "interested": 5146,
      "burrow": 5147,
      "tickled": 5148,
      "leader": 5149,
      "yelling": 5150,
      "giraffes": 5151,
      "writes": 5152,
      "groceries": 5153,
      "piggy": 5154,
      "plenty": 5155,
      "stom": 5156,
      "swallow": 5157,
      "wil": 5158,
      "becky": 5159,
      "seven": 5160,
      "express": 5161,
      "ters": 5162,
      "lower": 5163,
      "caused": 5164,
      "watches": 5165,
      "dee": 5166,
      "sorted": 5167,
      "expect": 5168,
      "ventured": 5169,
      "owners": 5170,
      "singer": 5171,
      "threat": 5172,
      "partic": 5173,
      "neighbors": 5174,
      "bottles": 5175,
      "gathering": 5176,
      "snakes": 5177,
      "actions": 5178,
      "bully": 5179,
      "tickle": 5180,
      "spaceship": 5181,
      "scales": 5182,
      "leaning": 5183,
      "master": 5184,
      "complaining": 5185,
      "insects": 5186,
      "include": 5187,
      "ricky": 5188,
      "yeah": 5189,
      "chips": 5190,
      "fluttering": 5191,
      "balancing": 5192,
      "rustling": 5193,
      "drifted": 5194,
      "awake": 5195,
      "bri": 5196,
      "iar": 5197,
      "lined": 5198,
      "masks": 5199,
      "wound": 5200,
      "iled": 5201,
      "iles": 5202,
      "beard": 5203,
      "plucked": 5204,
      "maisy": 5205,
      "ults": 5206,
      "pears": 5207,
      "scaring": 5208,
      "fault": 5209,
      "annabel": 5210,
      "item": 5211,
      "finn": 5212,
      "pupp": 5213,
      "confli": 5214,
      "tallest": 5215,
      "replaced": 5216,
      "listens": 5217,
      "monsters": 5218,
      "baker": 5219,
      "printed": 5220,
      "mina": 5221,
      "whispers": 5222,
      "marker": 5223,
      "snail": 5224,
      "protected": 5225,
      "decorating": 5226,
      "candies": 5227,
      "yells": 5228,
      "struggle": 5229,
      "kayla": 5230,
      "introduced": 5231,
      "written": 5232,
      "familiar": 5233,
      "rusty": 5234,
      "tis": 5235,
      "repa": 5236,
      "oking": 5237,
      "lip": 5238,
      "entrance": 5239,
      "tage": 5240,
      "catches": 5241,
      "prettie": 5242,
      "slam": 5243,
      "waiter": 5244,
      "cracked": 5245,
      "snuck": 5246,
      "prayer": 5247,
      "dared": 5248,
      "daring": 5249,
      "reason": 5250,
      "smarter": 5251,
      "raindrops": 5252,
      "repaired": 5253,
      "prettiest": 5254,
      "gabby": 5255,
      "lamb": 5256,
      "nick": 5257,
      "tara": 5258,
      "tangled": 5259,
      "vided": 5260,
      "zen": 5261,
      "wasted": 5262,
      "isies": 5263,
      "sobb": 5264,
      "rip": 5265,
      "theirs": 5266,
      "backed": 5267,
      "?\",": 5268,
      "ica": 5269,
      "swirl": 5270,
      "handful": 5271,
      "needles": 5272,
      "betty": 5273,
      "surfing": 5274,
      "daisies": 5275,
      "bows": 5276,
      "darker": 5277,
      "growls": 5278,
      "splashes": 5279,
      "dragons": 5280,
      "health": 5281,
      "dipped": 5282,
      "spreading": 5283,
      "folding": 5284,
      "determination": 5285,
      "davey": 5286,
      "squares": 5287,
      "mesmer": 5288,
      "rising": 5289,
      "tricky": 5290,
      "recipe": 5291,
      "improved": 5292,
      "beyond": 5293,
      "bonnie": 5294,
      "travelled": 5295,
      "accomplishment": 5296,
      "particular": 5297,
      "tissue": 5298,
      "cted": 5299,
      "cong": 5300,
      "flight": 5301,
      "nu": 5302,
      "ners": 5303,
      "rup": 5304,
      "rout": 5305,
      "sled": 5306,
      "wid": 5307,
      "hal": 5308,
      "ented": 5309,
      "stitch": 5310,
      "sewing": 5311,
      "ads": 5312,
      "gobbled": 5313,
      "roses": 5314,
      "outfit": 5315,
      "ryan": 5316,
      "sparrow": 5317,
      "cans": 5318,
      "amelia": 5319,
      "talent": 5320,
      "heading": 5321,
      "janey": 5322,
      "chop": 5323,
      "frozen": 5324,
      "sticking": 5325,
      "opening": 5326,
      "provided": 5327,
      "sation": 5328,
      "visitor": 5329,
      "matching": 5330,
      "heavier": 5331,
      "hopeful": 5332,
      "ratul": 5333,
      "copy": 5334,
      "burst": 5335,
      "sausages": 5336,
      "included": 5337,
      "seashel": 5338,
      "students": 5339,
      "squishy": 5340,
      "lulu": 5341,
      "congratul": 5342,
      "bits": 5343,
      "binky": 5344,
      "cent": 5345,
      "dam": 5346,
      "jon": 5347,
      "tilly": 5348,
      "toed": 5349,
      "ition": 5350,
      "although": 5351,
      "loween": 5352,
      "among": 5353,
      "unpacked": 5354,
      "forgetting": 5355,
      "fears": 5356,
      "excuse": 5357,
      "jacky": 5358,
      "rainy": 5359,
      "raincoat": 5360,
      "rings": 5361,
      "swept": 5362,
      "floppy": 5363,
      "snat": 5364,
      "farther": 5365,
      "trips": 5366,
      "kicks": 5367,
      "celebrating": 5368,
      "forks": 5369,
      "goals": 5370,
      "wiggle": 5371,
      "choices": 5372,
      "seconds": 5373,
      "...": 5374,
      "sense": 5375,
      "flavors": 5376,
      "chuckled": 5377,
      "conflict": 5378,
      "halloween": 5379,
      "grant": 5380,
      "hannah": 5381,
      "ivity": 5382,
      "ping": 5383,
      "uh": 5384,
      "via": 5385,
      "restored": 5386,
      "webs": 5387,
      "players": 5388,
      "forgiven": 5389,
      "maker": 5390,
      "polar": 5391,
      "learns": 5392,
      "rubs": 5393,
      "ruining": 5394,
      "misses": 5395,
      "rivers": 5396,
      "tractor": 5397,
      "creativity": 5398,
      "charac": 5399,
      "roads": 5400,
      "speaking": 5401,
      "praying": 5402,
      "batteries": 5403,
      "rewarded": 5404,
      "complained": 5405,
      "limes": 5406,
      "breathed": 5407,
      "minerals": 5408,
      "achieved": 5409,
      "insist": 5410,
      "directions": 5411,
      "explorers": 5412,
      "olivia": 5413,
      "widened": 5414,
      "dged": 5415,
      "ew": 5416,
      "earn": 5417,
      "pouted": 5418,
      "sid": 5419,
      "scor": 5420,
      "vities": 5421,
      "wadd": 5422,
      "zes": 5423,
      "refresh": 5424,
      "arran": 5425,
      "argum": 5426,
      "sale": 5427,
      "losing": 5428,
      "belly": 5429,
      "lies": 5430,
      "bodies": 5431,
      "ropes": 5432,
      "robin": 5433,
      "mane": 5434,
      "creations": 5435,
      "fishes": 5436,
      "pture": 5437,
      "cubs": 5438,
      "phil": 5439,
      "reply": 5440,
      "stern": 5441,
      "coral": 5442,
      "sweetest": 5443,
      "froggy": 5444,
      "plans": 5445,
      "flames": 5446,
      "faraway": 5447,
      "foxy": 5448,
      "cupcakes": 5449,
      "spoonful": 5450,
      "mailed": 5451,
      "flip": 5452,
      "drives": 5453,
      "auntie": 5454,
      "examined": 5455,
      "weekend": 5456,
      "cuddly": 5457,
      "neatly": 5458,
      "darling": 5459,
      "sandcastles": 5460,
      "discussed": 5461,
      "twinkle": 5462,
      "sprinkled": 5463,
      "weeping": 5464,
      "paddle": 5465,
      "hesitant": 5466,
      "hesitated": 5467,
      "honk": 5468,
      "accomplished": 5469,
      "kiki": 5470,
      "swallowed": 5471,
      "awoke": 5472,
      "dama": 5473,
      "gar": 5474,
      "gap": 5475,
      "nan": 5476,
      "nif": 5477,
      "tuck": 5478,
      "anno": 5479,
      "toaster": 5480,
      "resisted": 5481,
      "logs": 5482,
      "stung": 5483,
      "third": 5484,
      "bess": 5485,
      "vers": 5486,
      "hissed": 5487,
      "amoun": 5488,
      "liqu": 5489,
      "coon": 5490,
      "meg": 5491,
      "echo": 5492,
      "ops": 5493,
      "willing": 5494,
      "shops": 5495,
      "foods": 5496,
      "squaw": 5497,
      "trad": 5498,
      "bage": 5499,
      "bathing": 5500,
      "prove": 5501,
      "promises": 5502,
      "planning": 5503,
      "snowballs": 5504,
      "rolls": 5505,
      "purr": 5506,
      "streets": 5507,
      "mixture": 5508,
      "result": 5509,
      "calmed": 5510,
      "shrinking": 5511,
      "politely": 5512,
      "wipes": 5513,
      "meals": 5514,
      "guns": 5515,
      "pumpkins": 5516,
      "delivered": 5517,
      "separated": 5518,
      "avoid": 5519,
      "crashing": 5520,
      "requested": 5521,
      "suffering": 5522,
      "louise": 5523,
      "obeyed": 5524,
      "behaved": 5525,
      "behavi": 5526,
      "cottage": 5527,
      "peppers": 5528,
      "activities": 5529,
      "freedom": 5530,
      "cousin": 5531,
      "months": 5532,
      "supported": 5533,
      "damage": 5534,
      "annoy": 5535,
      "amount": 5536,
      "liquid": 5537,
      "bom": 5538,
      "ee": 5539,
      "ien": 5540,
      "opp": 5541,
      "remo": 5542,
      "ene": 5543,
      "impossible": 5544,
      "ply": 5545,
      "wept": 5546,
      "adult": 5547,
      "lied": 5548,
      "neither": 5549,
      "spice": 5550,
      "fully": 5551,
      "backwards": 5552,
      "peep": 5553,
      "homework": 5554,
      "pots": 5555,
      "pered": 5556,
      "bravery": 5557,
      "conver": 5558,
      "truly": 5559,
      "coloring": 5560,
      "hearing": 5561,
      "remembering": 5562,
      "trig": 5563,
      "draws": 5564,
      "wears": 5565,
      "hides": 5566,
      "knocks": 5567,
      "wires": 5568,
      "rotted": 5569,
      "rotten": 5570,
      "scrubbed": 5571,
      "belts": 5572,
      "healed": 5573,
      "desert": 5574,
      "peacefully": 5575,
      "crossing": 5576,
      "chocolates": 5577,
      "pins": 5578,
      "warnings": 5579,
      "paying": 5580,
      "lemons": 5581,
      "leads": 5582,
      "leading": 5583,
      "mushrooms": 5584,
      "screwdriver": 5585,
      "squeaky": 5586,
      "waddled": 5587,
      "argument": 5588,
      "remote": 5589,
      "dip": 5590,
      "ease": 5591,
      "gross": 5592,
      "til": 5593,
      "tum": 5594,
      "wink": 5595,
      "int": 5596,
      "refle": 5597,
      "aside": 5598,
      "stain": 5599,
      "beads": 5600,
      "sever": 5601,
      "ppear": 5602,
      "unity": 5603,
      "dots": 5604,
      "nect": 5605,
      "ford": 5606,
      "forts": 5607,
      "roxy": 5608,
      "terry": 5609,
      "cosy": 5610,
      "peas": 5611,
      "pecked": 5612,
      "maddie": 5613,
      "afford": 5614,
      "teased": 5615,
      "reappear": 5616,
      "blings": 5617,
      "magnets": 5618,
      "tram": 5619,
      "dropping": 5620,
      "firefight": 5621,
      "snowmen": 5622,
      "twice": 5623,
      "beehive": 5624,
      "growl": 5625,
      "miles": 5626,
      "jean": 5627,
      "wrapping": 5628,
      "wraps": 5629,
      "flipped": 5630,
      "curly": 5631,
      "sophia": 5632,
      "sneezing": 5633,
      "itchy": 5634,
      "silence": 5635,
      "suitcase": 5636,
      "sharks": 5637,
      "statues": 5638,
      "attack": 5639,
      "backpacks": 5640,
      "wandering": 5641,
      "siblings": 5642,
      "fantastic": 5643,
      "appreciation": 5644,
      "alien": 5645,
      "season": 5646,
      "beginning": 5647,
      "project": 5648,
      "instruments": 5649,
      "slammed": 5650,
      "sobbed": 5651,
      "refreshing": 5652,
      "nectar": 5653,
      "10": 5654,
      "gies": 5655,
      "nine": 5656,
      "oops": 5657,
      "ral": 5658,
      "tossed": 5659,
      "rect": 5660,
      "asty": 5661,
      "erk": 5662,
      "allo": 5663,
      "thro": 5664,
      "sew": 5665,
      "kelly": 5666,
      "notes": 5667,
      "sped": 5668,
      "spat": 5669,
      "scarves": 5670,
      "thoughts": 5671,
      "handsome": 5672,
      "clerk": 5673,
      "stays": 5674,
      "badge": 5675,
      "convin": 5676,
      "hairdresser": 5677,
      "smiley": 5678,
      "blocked": 5679,
      "curiously": 5680,
      "lighter": 5681,
      "softer": 5682,
      "snor": 5683,
      "swims": 5684,
      "tricked": 5685,
      "hider": 5686,
      "cloudy": 5687,
      "wrist": 5688,
      "diving": 5689,
      "slither": 5690,
      "adding": 5691,
      "nervously": 5692,
      "rory": 5693,
      "videos": 5694,
      "guest": 5695,
      "ribbit": 5696,
      "stacked": 5697,
      "ghosts": 5698,
      "countryside": 5699,
      "delayed": 5700,
      "fluttered": 5701,
      "responsib": 5702,
      "punishment": 5703,
      "increased": 5704,
      "recommended": 5705,
      "rumble": 5706,
      "deserve": 5707,
      "bakery": 5708,
      "congratulated": 5709,
      "reflection": 5710,
      "ralph": 5711,
      "throat": 5712,
      "bie": 5713,
      "bond": 5714,
      "hour": 5715,
      "jod": 5716,
      "joking": 5717,
      "karen": 5718,
      "pant": 5719,
      "sending": 5720,
      "ud": 5721,
      "insp": 5722,
      "report": 5723,
      "onna": 5724,
      "onward": 5725,
      "ongest": 5726,
      "sequ": 5727,
      "unk": 5728,
      "formed": 5729,
      "macy": 5730,
      "tered": 5731,
      "carly": 5732,
      "elf": 5733,
      "newfound": 5734,
      "helpers": 5735,
      "icked": 5736,
      "birdy": 5737,
      "poline": 5738,
      "antic": 5739,
      "displayed": 5740,
      "creamy": 5741,
      "meanwhile": 5742,
      "dani": 5743,
      "chosen": 5744,
      "correct": 5745,
      "drawers": 5746,
      "jennie": 5747,
      "covers": 5748,
      "tails": 5749,
      "passeng": 5750,
      "sisters": 5751,
      "dived": 5752,
      "wishing": 5753,
      "hitting": 5754,
      "toolbox": 5755,
      "imagining": 5756,
      "chickie": 5757,
      "source": 5758,
      "policeman": 5759,
      "frowns": 5760,
      "temper": 5761,
      "seems": 5762,
      "quackers": 5763,
      "knees": 5764,
      "trembled": 5765,
      "click": 5766,
      "oatmeal": 5767,
      "hallway": 5768,
      "superheroes": 5769,
      "slices": 5770,
      "exercises": 5771,
      "chipmun": 5772,
      "sneaky": 5773,
      "awesome": 5774,
      "weeds": 5775,
      "sweaters": 5776,
      "instantly": 5777,
      "mesmerized": 5778,
      "jonny": 5779,
      "scored": 5780,
      "trampoline": 5781,
      "passengers": 5782,
      "chipmunk": 5783,
      "aut": 5784,
      "eliza": 5785,
      "lent": 5786,
      "nasty": 5787,
      "swa": 5788,
      "tess": 5789,
      "tier": 5790,
      "toward": 5791,
      "asm": 5792,
      "spears": 5793,
      "sured": 5794,
      "mood": 5795,
      "umble": 5796,
      "foc": 5797,
      "focus": 5798,
      "dads": 5799,
      "yourselves": 5800,
      "defe": 5801,
      "rule": 5802,
      "ruth": 5803,
      "final": 5804,
      "overcome": 5805,
      "prettier": 5806,
      "johnson": 5807,
      "lotte": 5808,
      "throughout": 5809,
      "scam": 5810,
      "pops": 5811,
      "steady": 5812,
      "seaweed": 5813,
      "potion": 5814,
      "corners": 5815,
      "charlotte": 5816,
      "business": 5817,
      "seeker": 5818,
      "lifts": 5819,
      "feeding": 5820,
      "swans": 5821,
      "prick": 5822,
      "changing": 5823,
      "scratches": 5824,
      "cobwebs": 5825,
      "designed": 5826,
      "miller": 5827,
      "jessica": 5828,
      "dusty": 5829,
      "surroundings": 5830,
      "surfboard": 5831,
      "frankie": 5832,
      "robbie": 5833,
      "scraped": 5834,
      "granted": 5835,
      "bricks": 5836,
      "routine": 5837,
      "snatched": 5838,
      "inspired": 5839,
      "gonna": 5840,
      "knit": 5841,
      "tasks": 5842,
      "xop": 5843,
      "height": 5844,
      "tori": 5845,
      "ref": 5846,
      "recor": 5847,
      "haw": 5848,
      "sav": 5849,
      "satur": 5850,
      "saxop": 5851,
      "ends": 5852,
      "noses": 5853,
      "amma": 5854,
      "ados": 5855,
      "neare": 5856,
      "tapping": 5857,
      "mance": 5858,
      "manag": 5859,
      "goodies": 5860,
      "lettu": 5861,
      "wobbled": 5862,
      "poster": 5863,
      "ives": 5864,
      "skunk": 5865,
      "achoo": 5866,
      "shown": 5867,
      "concer": 5868,
      "consequ": 5869,
      "talented": 5870,
      "stands": 5871,
      "frosty": 5872,
      "prints": 5873,
      "provid": 5874,
      "slower": 5875,
      "tricycle": 5876,
      "pens": 5877,
      "ences": 5878,
      "rotting": 5879,
      "scient": 5880,
      "glim": 5881,
      "heartbroken": 5882,
      "giggles": 5883,
      "puzzled": 5884,
      "paths": 5885,
      "charge": 5886,
      "imagin": 5887,
      "battle": 5888,
      "shrug": 5889,
      "vanilla": 5890,
      "humming": 5891,
      "stroked": 5892,
      "prayers": 5893,
      "wiping": 5894,
      "flashing": 5895,
      "streamers": 5896,
      "silent": 5897,
      "raccoon": 5898,
      "delivering": 5899,
      "experien": 5900,
      "respond": 5901,
      "aeroplanes": 5902,
      "knots": 5903,
      "rushing": 5904,
      "twinkled": 5905,
      "tiptoed": 5906,
      "humans": 5907,
      "seagulls": 5908,
      "lungs": 5909,
      "performance": 5910,
      "greeted": 5911,
      "customers": 5912,
      "toddler": 5913,
      "spices": 5914,
      "conversation": 5915,
      "saturday": 5916,
      "saxophone": 5917,
      "lettuce": 5918,
      "ais": 5919,
      "center": 5920,
      "date": 5921,
      "glu": 5922,
      "mila": 5923,
      "pad": 5924,
      "ram": 5925,
      "scut": 5926,
      "sank": 5927,
      "tran": 5928,
      "ued": 5929,
      "intrig": 5930,
      "ists": 5931,
      "least": 5932,
      "stinky": 5933,
      "thrown": 5934,
      "thud": 5935,
      "amed": 5936,
      "oky": 5937,
      "playtime": 5938,
      "chilly": 5939,
      "ounced": 5940,
      "idey": 5941,
      "spidey": 5942,
      "inda": 5943,
      "tapped": 5944,
      "stopping": 5945,
      "seesaw": 5946,
      "thanking": 5947,
      "napping": 5948,
      "whoever": 5949,
      "wobb": 5950,
      "type": 5951,
      "watering": 5952,
      "clas": 5953,
      "rains": 5954,
      "exploded": 5955,
      "gardener": 5956,
      "conqu": 5957,
      "doorway": 5958,
      "rench": 5959,
      "lessons": 5960,
      "breathing": 5961,
      "grassy": 5962,
      "tighter": 5963,
      "dreamt": 5964,
      "pinky": 5965,
      "iggled": 5966,
      "million": 5967,
      "ments": 5968,
      "paintbrush": 5969,
      "dragonfly": 5970,
      "bowls": 5971,
      "pans": 5972,
      "larry": 5973,
      "smelling": 5974,
      "matters": 5975,
      "testing": 5976,
      "bulbs": 5977,
      "whistles": 5978,
      "calmly": 5979,
      "pastries": 5980,
      "crabby": 5981,
      "cleared": 5982,
      "examining": 5983,
      "figures": 5984,
      "pipp": 5985,
      "frowning": 5986,
      "buzzed": 5987,
      "scratching": 5988,
      "cubes": 5989,
      "repeating": 5990,
      "neighbours": 5991,
      "penguins": 5992,
      "sailors": 5993,
      "indeed": 5994,
      "blinking": 5995,
      "enthusiasm": 5996,
      "pokes": 5997,
      "discussing": 5998,
      "avocados": 5999,
      "bothered": 6000,
      "encouraging": 6001,
      "mering": 6002,
      "preparing": 6003,
      "prunes": 6004,
      "licking": 6005,
      "spills": 6006,
      "cotton": 6007,
      "peppa": 6008,
      "dotty": 6009,
      "connected": 6010,
      "stomped": 6011,
      "nuzz": 6012,
      "characters": 6013,
      "arranged": 6014,
      "bessie": 6015,
      "responsibility": 6016,
      "temperature": 6017,
      "scampered": 6018,
      "prickly": 6019,
      "trans": 6020,
      "intrigued": 6021,
      "blad": 6022,
      "cour": 6023,
      "fid": 6024,
      "faded": 6025,
      "ggies": 6026,
      "hus": 6027,
      "jugg": 6028,
      "las": 6029,
      "lings": 6030,
      "lending": 6031,
      "mate": 6032,
      "mamma": 6033,
      "py": 6034,
      "pound": 6035,
      "ron": 6036,
      "wrench": 6037,
      "rees": 6038,
      "stro": 6039,
      "stroll": 6040,
      "beloved": 6041,
      "cess": 6042,
      "cept": 6043,
      "veggies": 6044,
      "ppers": 6045,
      "within": 6046,
      "hopper": 6047,
      "nell": 6048,
      "bots": 6049,
      "rosy": 6050,
      "roger": 6051,
      "robots": 6052,
      "outfits": 6053,
      "suits": 6054,
      "elsie": 6055,
      "iff": 6056,
      "wobble": 6057,
      "deed": 6058,
      "defin": 6059,
      "donkey": 6060,
      "crew": 6061,
      "handing": 6062,
      "untied": 6063,
      "reads": 6064,
      "bravest": 6065,
      "dollhouse": 6066,
      "nearly": 6067,
      "rocky": 6068,
      "rockets": 6069,
      "magnif": 6070,
      "sweep": 6071,
      "mischie": 6072,
      "chopped": 6073,
      "flown": 6074,
      "printing": 6075,
      "covering": 6076,
      "!”.": 6077,
      "artist": 6078,
      "talks": 6079,
      "quieter": 6080,
      "dryer": 6081,
      "jeremy": 6082,
      "dience": 6083,
      "youngest": 6084,
      "parties": 6085,
      "distrac": 6086,
      "troubles": 6087,
      "action": 6088,
      "tidying": 6089,
      "driveway": 6090,
      "laces": 6091,
      "finishing": 6092,
      "audience": 6093,
      "lifting": 6094,
      "suggestion": 6095,
      "terrified": 6096,
      "leapt": 6097,
      "cuddles": 6098,
      "henny": 6099,
      "scarecrow": 6100,
      "risks": 6101,
      "gracefully": 6102,
      "symbols": 6103,
      "tunnels": 6104,
      "loops": 6105,
      "clues": 6106,
      "napkins": 6107,
      "magazines": 6108,
      "yielded": 6109,
      "twisty": 6110,
      "tasting": 6111,
      "poems": 6112,
      "honked": 6113,
      "performed": 6114,
      "pupils": 6115,
      "muscles": 6116,
      "thorns": 6117,
      "particularly": 6118,
      "damaged": 6119,
      "several": 6120,
      "focused": 6121,
      "experienced": 6122,
      "husband": 6123,
      "stroke": 6124,
      "bison": 6125,
      "gary": 6126,
      "kn": 6127,
      "lan": 6128,
      "pam": 6129,
      "swit": 6130,
      "trotted": 6131,
      "zara": 6132,
      "stit": 6133,
      "igning": 6134,
      "unsure": 6135,
      "helme": 6136,
      "agrees": 6137,
      "starfish": 6138,
      "whoo": 6139,
      "fact": 6140,
      "itely": 6141,
      "jackets": 6142,
      "vented": 6143,
      "spooky": 6144,
      "astron": 6145,
      "expert": 6146,
      "treated": 6147,
      "johnnie": 6148,
      "grandson": 6149,
      "fishy": 6150,
      "drawn": 6151,
      "mayor": 6152,
      "soundly": 6153,
      "biting": 6154,
      "woodpeck": 6155,
      "genero": 6156,
      "sparky": 6157,
      "foxes": 6158,
      "wrink": 6159,
      "couple": 6160,
      "drift": 6161,
      "slips": 6162,
      "desper": 6163,
      "burger": 6164,
      "valued": 6165,
      "strips": 6166,
      "breaths": 6167,
      "strongest": 6168,
      "nibble": 6169,
      "passports": 6170,
      "brushing": 6171,
      "knights": 6172,
      "orders": 6173,
      "beetles": 6174,
      "arrows": 6175,
      "travels": 6176,
      "speedy": 6177,
      "supplied": 6178,
      "campfire": 6179,
      "pedaled": 6180,
      "twisting": 6181,
      "burnt": 6182,
      "quarreling": 6183,
      "offering": 6184,
      "admiration": 6185,
      "janie": 6186,
      "travelling": 6187,
      "hootie": 6188,
      "activity": 6189,
      "swaying": 6190,
      "seashells": 6191,
      "garbage": 6192,
      "consequences": 6193,
      "providing": 6194,
      "court": 6195,
      "definitely": 6196,
      "distracted": 6197,
      "helmets": 6198,
      "astronaut": 6199,
      "woodpecker": 6200,
      "generosity": 6201,
      "dep": 6202,
      "eve": 6203,
      "fion": 6204,
      "hike": 6205,
      "jas": 6206,
      "tumbled": 6207,
      "wend": 6208,
      "wider": 6209,
      "ands": 6210,
      "reunited": 6211,
      "aston": 6212,
      "oni": 6213,
      "onse": 6214,
      "isie": 6215,
      "sadd": 6216,
      "except": 6217,
      "adults": 6218,
      "upside": 6219,
      "holly": 6220,
      "maisie": 6221,
      "rather": 6222,
      "spits": 6223,
      "spies": 6224,
      "sprang": 6225,
      "susy": 6226,
      "peak": 6227,
      "ameli": 6228,
      "cathy": 6229,
      "shall": 6230,
      "catie": 6231,
      "sunflowers": 6232,
      "badger": 6233,
      "cleaner": 6234,
      "dollars": 6235,
      "granddaughter": 6236,
      "squished": 6237,
      "blast": 6238,
      "flora": 6239,
      "fires": 6240,
      "colin": 6241,
      "pointy": 6242,
      "grows": 6243,
      "believing": 6244,
      "scribb": 6245,
      "scram": 6246,
      "lakes": 6247,
      "marking": 6248,
      "slipping": 6249,
      "tia": 6250,
      "tipped": 6251,
      "laying": 6252,
      "decoration": 6253,
      "flaps": 6254,
      "blocking": 6255,
      "spoiling": 6256,
      "wakes": 6257,
      "cheerfully": 6258,
      "loading": 6259,
      "leaking": 6260,
      "tempt": 6261,
      "borrowed": 6262,
      "bounces": 6263,
      "turtles": 6264,
      "discoveries": 6265,
      "spells": 6266,
      "crawls": 6267,
      "bumps": 6268,
      "triangles": 6269,
      "lenny": 6270,
      "speaker": 6271,
      "response": 6272,
      "postman": 6273,
      "tearing": 6274,
      "permitted": 6275,
      "inchworm": 6276,
      "robbers": 6277,
      "performing": 6278,
      "scrape": 6279,
      "customer": 6280,
      "materials": 6281,
      "expression": 6282,
      "wounds": 6283,
      "puppies": 6284,
      "forgiveness": 6285,
      "tucker": 6286,
      "behavior": 6287,
      "bomb": 6288,
      "opport": 6289,
      "glued": 6290,
      "wobbly": 6291,
      "mischievous": 6292,
      "fiona": 6293,
      "wendy": 6294,
      "?!\"": 6295,
      "apers": 6296,
      "fay": 6297,
      "gaz": 6298,
      "nana": 6299,
      "shim": 6300,
      "sill": 6301,
      "swords": 6302,
      "twin": 6303,
      "hea": 6304,
      "itu": 6305,
      "arrr": 6306,
      "leap": 6307,
      "behaving": 6308,
      "nood": 6309,
      "playhouse": 6310,
      "forgets": 6311,
      "aller": 6312,
      "rover": 6313,
      "noticing": 6314,
      "cope": 6315,
      "franc": 6316,
      "melo": 6317,
      "shor": 6318,
      "joan": 6319,
      "abbie": 6320,
      "grad": 6321,
      "grump": 6322,
      "goodby": 6323,
      "whose": 6324,
      "declar": 6325,
      "afar": 6326,
      "pose": 6327,
      "pollen": 6328,
      "presses": 6329,
      "bless": 6330,
      "finny": 6331,
      "explor": 6332,
      "joyful": 6333,
      "parted": 6334,
      "bloss": 6335,
      "touches": 6336,
      "worrying": 6337,
      "visits": 6338,
      "jax": 6339,
      "wriggled": 6340,
      "belle": 6341,
      "planets": 6342,
      "drivers": 6343,
      "roars": 6344,
      "picnics": 6345,
      "serving": 6346,
      "cris": 6347,
      "whales": 6348,
      "changes": 6349,
      "seller": 6350,
      "diamonds": 6351,
      "vio": 6352,
      "shady": 6353,
      "buckled": 6354,
      "scolds": 6355,
      "weighs": 6356,
      "vehicles": 6357,
      "simply": 6358,
      "bothering": 6359,
      "burying": 6360,
      "banged": 6361,
      "beaming": 6362,
      "disturbing": 6363,
      "glittery": 6364,
      "scurry": 6365,
      "automobiles": 6366,
      "robber": 6367,
      "efforts": 6368,
      "peeled": 6369,
      "willie": 6370,
      "earned": 6371,
      "echoed": 6372,
      "annoyed": 6373,
      "firefighter": 6374,
      "slithered": 6375,
      "pantry": 6376,
      "elizabeth": 6377,
      "recorder": 6378,
      "fido": 6379,
      "knives": 6380,
      "scrambled": 6381,
      "opportunity": 6382,
      "faye": 6383,
      "francis": 6384,
      "goodbyes": 6385,
      "11": 6386,
      "aimed": 6387,
      "bis": 6388,
      "bamb": 6389,
      "dred": 6390,
      "evie": 6391,
      "oke": 6392,
      "sou": 6393,
      "uff": 6394,
      "intent": 6395,
      "ita": 6396,
      "ening": 6397,
      "wasting": 6398,
      "shelly": 6399,
      "isla": 6400,
      "isky": 6401,
      "stan": 6402,
      "exhi": 6403,
      "hissing": 6404,
      "hops": 6405,
      "fever": 6406,
      "maid": 6407,
      "raking": 6408,
      "smates": 6409,
      "ulpture": 6410,
      "carla": 6411,
      "elsa": 6412,
      "canes": 6413,
      "storing": 6414,
      "otherwise": 6415,
      "wolves": 6416,
      "quilt": 6417,
      "prevented": 6418,
      "teles": 6419,
      "dears": 6420,
      "anya": 6421,
      "skies": 6422,
      "pace": 6423,
      "bertha": 6424,
      "puck": 6425,
      "pleas": 6426,
      "cuit": 6427,
      "cons": 6428,
      "rows": 6429,
      "marve": 6430,
      "climber": 6431,
      "rent": 6432,
      "squinted": 6433,
      "dressing": 6434,
      "drown": 6435,
      "guide": 6436,
      "firefly": 6437,
      "barry": 6438,
      "understands": 6439,
      "otto": 6440,
      "counts": 6441,
      "countries": 6442,
      "sails": 6443,
      "elect": 6444,
      "sculpture": 6445,
      "baths": 6446,
      "milo": 6447,
      "minds": 6448,
      "bubba": 6449,
      "teachers": 6450,
      "wisely": 6451,
      "panicked": 6452,
      "bandages": 6453,
      "rubbish": 6454,
      "tested": 6455,
      "zookeeper": 6456,
      "heroes": 6457,
      "ignoring": 6458,
      "whispering": 6459,
      "snuggle": 6460,
      "successfully": 6461,
      "goats": 6462,
      "angels": 6463,
      "pigeons": 6464,
      "hundred": 6465,
      "repairman": 6466,
      "yawning": 6467,
      "zipping": 6468,
      "threads": 6469,
      "occas": 6470,
      "appreciated": 6471,
      "knocking": 6472,
      "newspapers": 6473,
      "reversed": 6474,
      "flooded": 6475,
      "repeats": 6476,
      "mermaid": 6477,
      "paddling": 6478,
      "throne": 6479,
      "aliens": 6480,
      "...\"": 6481,
      "fascinating": 6482,
      "awful": 6483,
      "officers": 6484,
      "spilling": 6485,
      "bends": 6486,
      "tigger": 6487,
      "reassured": 6488,
      "sirens": 6489,
      "chefs": 6490,
      "firmly": 6491,
      "bobbie": 6492,
      "visitors": 6493,
      "intment": 6494,
      "correctly": 6495,
      "swap": 6496,
      "defeated": 6497,
      "aisle": 6498,
      "classmates": 6499,
      "conquered": 6500,
      "nuzzled": 6501,
      "matey": 6502,
      "astronauts": 6503,
      "astonished": 6504,
      "heaven": 6505,
      "itude": 6506,
      "declared": 6507,
      "exploration": 6508,
      "blossom": 6509,
      "violet": 6510,
      "bambi": 6511,
      "telescope": 6512,
      "!'.": 6513,
      "911": 6514,
      "coug": 6515,
      "dump": 6516,
      "ech": 6517,
      "fie": 6518,
      "gig": 6519,
      "ggy": 6520,
      "linda": 6521,
      "nor": 6522,
      "nat": 6523,
      "phe": 6524,
      "plo": 6525,
      "vive": 6526,
      "warri": 6527,
      "zel": 6528,
      "edges": 6529,
      "toss": 6530,
      "onge": 6531,
      "onde": 6532,
      "enclo": 6533,
      "ari": 6534,
      "issa": 6535,
      "saman": 6536,
      "alfie": 6537,
      "sewed": 6538,
      "soaking": 6539,
      "hiss": 6540,
      "amped": 6541,
      "pled": 6542,
      "plumber": 6543,
      "plugged": 6544,
      "mommies": 6545,
      "rier": 6546,
      "rious": 6547,
      "rips": 6548,
      "dodged": 6549,
      "bop": 6550,
      "force": 6551,
      "forgiving": 6552,
      "gears": 6553,
      "wanna": 6554,
      "smashed": 6555,
      "sponge": 6556,
      "carts": 6557,
      "checks": 6558,
      "manners": 6559,
      "starla": 6560,
      "causing": 6561,
      "birdhouse": 6562,
      "waters": 6563,
      "kings": 6564,
      "bride": 6565,
      "poop": 6566,
      "poses": 6567,
      "faction": 6568,
      "bbling": 6569,
      "preschool": 6570,
      "runner": 6571,
      "sunscreen": 6572,
      "untie": 6573,
      "pretzel": 6574,
      "iley": 6575,
      "bernie": 6576,
      "actor": 6577,
      "brooke": 6578,
      "bracele": 6579,
      "survive": 6580,
      "condu": 6581,
      "rowed": 6582,
      "grandparents": 6583,
      "steer": 6584,
      "nodding": 6585,
      "forests": 6586,
      "discoura": 6587,
      "blown": 6588,
      "blonde": 6589,
      "ipation": 6590,
      "bowing": 6591,
      "warmer": 6592,
      "probab": 6593,
      "produ": 6594,
      "snug": 6595,
      "trace": 6596,
      "floors": 6597,
      "germs": 6598,
      "hotter": 6599,
      "queens": 6600,
      "brant": 6601,
      "scener": 6602,
      "pressing": 6603,
      "dripping": 6604,
      "ships": 6605,
      "spins": 6606,
      "calming": 6607,
      "respected": 6608,
      "sery": 6609,
      "active": 6610,
      "answering": 6611,
      "speech": 6612,
      "goldie": 6613,
      "reminds": 6614,
      "lacey": 6615,
      "squeaked": 6616,
      "kittens": 6617,
      "sonya": 6618,
      "apologised": 6619,
      "messes": 6620,
      "nurses": 6621,
      "nursery": 6622,
      "cushions": 6623,
      "vibrant": 6624,
      "hooks": 6625,
      "scattering": 6626,
      "gems": 6627,
      "tubes": 6628,
      "designs": 6629,
      "darlings": 6630,
      "uniforms": 6631,
      "aprons": 6632,
      "complim": 6633,
      "writer": 6634,
      "swollen": 6635,
      "munching": 6636,
      "rumbling": 6637,
      "chatted": 6638,
      "greet": 6639,
      "granny": 6640,
      "blushed": 6641,
      "squawk": 6642,
      "tilted": 6643,
      "guests": 6644,
      "anticipation": 6645,
      "daniel": 6646,
      "popsic": 6647,
      "hawk": 6648,
      "manager": 6649,
      "concert": 6650,
      "responded": 6651,
      "scuttled": 6652,
      "transformed": 6653,
      "sadder": 6654,
      "gazing": 6655,
      "noodles": 6656,
      "melody": 6657,
      "shorter": 6658,
      "gradually": 6659,
      "biscuit": 6660,
      "exhibit": 6661,
      "consider": 6662,
      "coughed": 6663,
      "phew": 6664,
      "warrior": 6665,
      "enclosure": 6666,
      "samantha": 6667,
      "bracelets": 6668,
      "conductor": 6669,
      "discouraged": 6670,
      "probably": 6671,
      "scenery": 6672,
      ",'": 6673,
      "acle": 6674,
      "bound": 6675,
      "cluck": 6676,
      "dial": 6677,
      "dges": 6678,
      "fond": 6679,
      "flakes": 6680,
      "lil": 6681,
      "mous": 6682,
      "mallow": 6683,
      "nis": 6684,
      "ooh": 6685,
      "pours": 6686,
      "von": 6687,
      "vant": 6688,
      "vast": 6689,
      "whim": 6690,
      "ying": 6691,
      "yvon": 6692,
      "eddie": 6693,
      "inter": 6694,
      "rell": 6695,
      "retri": 6696,
      "sheets": 6697,
      "ilities": 6698,
      "allest": 6699,
      "lor": 6700,
      "los": 6701,
      "locks": 6702,
      "stamped": 6703,
      "ata": 6704,
      "ative": 6705,
      "amen": 6706,
      "plug": 6707,
      "ria": 6708,
      "goo": 6709,
      "chup": 6710,
      "essa": 6711,
      "smallest": 6712,
      "spi": 6713,
      "spare": 6714,
      "elbow": 6715,
      "coop": 6716,
      "helen": 6717,
      "shrunk": 6718,
      "shmallow": 6719,
      "cheers": 6720,
      "pebby": 6721,
      "lowered": 6722,
      "capture": 6723,
      "napped": 6724,
      "woo": 6725,
      "buses": 6726,
      "tyler": 6727,
      "faith": 6728,
      "failed": 6729,
      "shines": 6730,
      "flowing": 6731,
      "loudest": 6732,
      "surprising": 6733,
      "surely": 6734,
      "concent": 6735,
      "marshmallow": 6736,
      "nights": 6737,
      "mona": 6738,
      "mony": 6739,
      "meaning": 6740,
      "tables": 6741,
      "grabbing": 6742,
      "warmly": 6743,
      "ketchup": 6744,
      "sandra": 6745,
      "sandpit": 6746,
      "baldy": 6747,
      "softened": 6748,
      "craf": 6749,
      "magician": 6750,
      "colla": 6751,
      "colder": 6752,
      "slowed": 6753,
      "patty": 6754,
      "patches": 6755,
      "winds": 6756,
      "joining": 6757,
      "scent": 6758,
      "jobs": 6759,
      "smelt": 6760,
      "diaper": 6761,
      "bushy": 6762,
      "glar": 6763,
      "glided": 6764,
      "ugging": 6765,
      "gesture": 6766,
      "tires": 6767,
      "certain": 6768,
      "seatbelt": 6769,
      "planting": 6770,
      "reminding": 6771,
      "stripe": 6772,
      "dennis": 6773,
      "engines": 6774,
      "loads": 6775,
      "guards": 6776,
      "squeezes": 6777,
      "mosquitoes": 6778,
      "scares": 6779,
      "spelling": 6780,
      "thieves": 6781,
      "speeding": 6782,
      "environ": 6783,
      "sneaking": 6784,
      "ironing": 6785,
      "snaps": 6786,
      "kneeling": 6787,
      "suffered": 6788,
      "unpacking": 6789,
      "floats": 6790,
      "ornaments": 6791,
      "glittered": 6792,
      "container": 6793,
      "satisfaction": 6794,
      "janet": 6795,
      "rooster": 6796,
      "kathy": 6797,
      "chief": 6798,
      "seashell": 6799,
      "purrs": 6800,
      "reappeared": 6801,
      "convinced": 6802,
      "jody": 6803,
      "nearest": 6804,
      "scientist": 6805,
      "glimmering": 6806,
      "magnifying": 6807,
      "whoosh": 6808,
      "temptation": 6809,
      "intently": 6810,
      "occasion": 6811,
      "yvonne": 6812,
      "marshmallows": 6813,
      "environment": 6814,
      "awhile": 6815,
      "bi": 6816,
      "biff": 6817,
      "cca": 6818,
      "ev": 6819,
      "gic": 6820,
      "gus": 6821,
      "gates": 6822,
      "grip": 6823,
      "kris": 6824,
      "lmed": 6825,
      "mur": 6826,
      "miest": 6827,
      "pout": 6828,
      "tions": 6829,
      "xie": 6830,
      "inny": 6831,
      "rebuild": 6832,
      "encounter": 6833,
      "aly": 6834,
      "stumble": 6835,
      "thump": 6836,
      "beast": 6837,
      "becca": 6838,
      "timid": 6839,
      "ami": 6840,
      "riet": 6841,
      "hover": 6842,
      "necess": 6843,
      "chugged": 6844,
      "macar": 6845,
      "mabel": 6846,
      "lookout": 6847,
      "whelmed": 6848,
      "carlos": 6849,
      "elle": 6850,
      "benches": 6851,
      "tab": 6852,
      "backs": 6853,
      "ural": 6854,
      "toot": 6855,
      "lava": 6856,
      "ability": 6857,
      "getic": 6858,
      "tying": 6859,
      "types": 6860,
      "posit": 6861,
      "facing": 6862,
      "cloak": 6863,
      "presen": 6864,
      "teen": 6865,
      "creak": 6866,
      "overwhelmed": 6867,
      "waterfall": 6868,
      "clut": 6869,
      "combed": 6870,
      "compan": 6871,
      "acing": 6872,
      "conten": 6873,
      "doorbell": 6874,
      "members": 6875,
      "mari": 6876,
      "adventurer": 6877,
      "bitten": 6878,
      "traded": 6879,
      "flop": 6880,
      "ffed": 6881,
      "gues": 6882,
      "softest": 6883,
      "welcoming": 6884,
      "fills": 6885,
      "rays": 6886,
      "syrup": 6887,
      "petting": 6888,
      "julia": 6889,
      "stuart": 6890,
      "packages": 6891,
      "artwork": 6892,
      "science": 6893,
      "?”.": 6894,
      "comforting": 6895,
      "results": 6896,
      "caves": 6897,
      "melons": 6898,
      "storms": 6899,
      "servant": 6900,
      "rats": 6901,
      "peacefulness": 6902,
      "folds": 6903,
      "announced": 6904,
      "sprays": 6905,
      "thankfully": 6906,
      "honesty": 6907,
      "motorcy": 6908,
      "motorbike": 6909,
      "example": 6910,
      "thicker": 6911,
      "pays": 6912,
      "teamwork": 6913,
      "pippy": 6914,
      "pixie": 6915,
      "crowns": 6916,
      "temp": 6917,
      "guessing": 6918,
      "croaked": 6919,
      "alexis": 6920,
      "cocoon": 6921,
      "salon": 6922,
      "palms": 6923,
      "recess": 6924,
      "energ": 6925,
      "energetic": 6926,
      "beeped": 6927,
      "kayaking": 6928,
      "sniffing": 6929,
      "freezing": 6930,
      "reindeers": 6931,
      "wiser": 6932,
      "ostriches": 6933,
      "yummiest": 6934,
      "emerged": 6935,
      "slapping": 6936,
      "rails": 6937,
      "mooed": 6938,
      "labels": 6939,
      "surrendered": 6940,
      "languages": 6941,
      "decisions": 6942,
      "munched": 6943,
      "confidently": 6944,
      "textures": 6945,
      "greeting": 6946,
      "achievement": 6947,
      "swayed": 6948,
      "cousins": 6949,
      "instrument": 6950,
      "cooed": 6951,
      "philip": 6952,
      "trading": 6953,
      "snoring": 6954,
      "refuse": 6955,
      "allergic": 6956,
      "scurrying": 6957,
      "drowned": 6958,
      "natural": 6959,
      "plopped": 6960,
      "bounded": 6961,
      "mousy": 6962,
      "necessary": 6963,
      "macaroni": 6964,
      "presented": 6965,
      "contented": 6966,
      "00": 6967,
      "aa": 6968,
      "afri": 6969,
      "ause": 6970,
      "aboard": 6971,
      "bou": 6972,
      "bing": 6973,
      "bino": 6974,
      "cled": 6975,
      "cular": 6976,
      "clicked": 6977,
      "dou": 6978,
      "dong": 6979,
      "ese": 6980,
      "eli": 6981,
      "gw": 6982,
      "gallo": 6983,
      "jing": 6984,
      "jes": 6985,
      "jemma": 6986,
      "joked": 6987,
      "kara": 6988,
      "lers": 6989,
      "sno": 6990,
      "sly": 6991,
      "swat": 6992,
      "tant": 6993,
      "ties": 6994,
      "”,": 6995,
      "thew": 6996,
      "toise": 6997,
      "restoring": 6998,
      "haven": 6999,
      "erup": 7000,
      "erase": 7001,
      "levers": 7002,
      "alan": 7003,
      "allie": 7004,
      "alley": 7005,
      "ths": 7006,
      "atitude": 7007,
      "exchange": 7008,
      "hisses": 7009,
      "amused": 7010,
      "hog": 7011,
      "boil": 7012,
      "chill": 7013,
      "alled": 7014,
      "geese": 7015,
      "raising": 7016,
      "sometime": 7017,
      "coach": 7018,
      "ector": 7019,
      "absolut": 7020,
      "worn": 7021,
      "gratitude": 7022,
      "quet": 7023,
      "ously": 7024,
      "buster": 7025,
      "shallow": 7026,
      "cares": 7027,
      "carefree": 7028,
      "anger": 7029,
      "rung": 7030,
      "skirts": 7031,
      "gress": 7032,
      "clam": 7033,
      "acy": 7034,
      "jumper": 7035,
      "gardens": 7036,
      "cleans": 7037,
      "slug": 7038,
      "slur": 7039,
      "closing": 7040,
      "stew": 7041,
      "tortoise": 7042,
      "stores": 7043,
      "brightest": 7044,
      "chopping": 7045,
      "cutter": 7046,
      "proved": 7047,
      "progress": 7048,
      "traps": 7049,
      "swimsuit": 7050,
      "flashed": 7051,
      "sleeps": 7052,
      "sylve": 7053,
      "july": 7054,
      "juic": 7055,
      "judges": 7056,
      "continuing": 7057,
      "gerry": 7058,
      "snowball": 7059,
      "matthew": 7060,
      "fights": 7061,
      "scrub": 7062,
      "scene": 7063,
      "heavily": 7064,
      "umbrell": 7065,
      "explains": 7066,
      "explaining": 7067,
      "races": 7068,
      "scotch": 7069,
      "hopscotch": 7070,
      "footsteps": 7071,
      "chicks": 7072,
      "current": 7073,
      "hummed": 7074,
      "disappointment": 7075,
      "gasps": 7076,
      "screws": 7077,
      "formation": 7078,
      "allowing": 7079,
      "extraordinary": 7080,
      "relaxing": 7081,
      "squeezing": 7082,
      "meowing": 7083,
      "zips": 7084,
      "crocodiles": 7085,
      "gemma": 7086,
      "scooters": 7087,
      "motorcycles": 7088,
      "thunderstorm": 7089,
      "sinking": 7090,
      "skeletons": 7091,
      "facts": 7092,
      "shovels": 7093,
      "pedaling": 7094,
      "katr": 7095,
      "observing": 7096,
      "traveling": 7097,
      "paula": 7098,
      "reversing": 7099,
      "applause": 7100,
      "exercising": 7101,
      "revealing": 7102,
      "novels": 7103,
      "shooed": 7104,
      "pearls": 7105,
      "victori": 7106,
      "seasons": 7107,
      "hesitation": 7108,
      "increasing": 7109,
      "thumbs": 7110,
      "glittering": 7111,
      "hurricanes": 7112,
      "scoops": 7113,
      "hunting": 7114,
      "sweaty": 7115,
      "tammy": 7116,
      "ibly": 7117,
      "hooves": 7118,
      "sniffs": 7119,
      "puppet": 7120,
      "lipstick": 7121,
      "insisting": 7122,
      "tumbling": 7123,
      "tummies": 7124,
      "attacked": 7125,
      "pippin": 7126,
      "stitches": 7127,
      "desperate": 7128,
      "hundreds": 7129,
      "gigi": 7130,
      "considerate": 7131,
      "crafts": 7132,
      "evil": 7133,
      "companion": 7134,
      "flopsy": 7135,
      "africa": 7136,
      "bouquet": 7137,
      "binocular": 7138,
      "gwen": 7139,
      "jesus": 7140,
      "tantrum": 7141,
      "absolute": 7142,
      "sylvester": 7143,
      "umbrellas": 7144,
      "binoculars": 7145,
      "',": 7146,
      "aim": 7147,
      "cul": 7148,
      "det": 7149,
      "dashed": 7150,
      "dging": 7151,
      "elope": 7152,
      "fisky": 7153,
      "ligh": 7154,
      "llie": 7155,
      "mered": 7156,
      "oink": 7157,
      "ogre": 7158,
      "pand": 7159,
      "rink": 7160,
      "shave": 7161,
      "ware": 7162,
      "zer": 7163,
      "theat": 7164,
      "eded": 7165,
      "topp": 7166,
      "andon": 7167,
      "insepar": 7168,
      "rev": 7169,
      "rely": 7170,
      "returning": 7171,
      "ony": 7172,
      "habit": 7173,
      "erina": 7174,
      "ilda": 7175,
      "level": 7176,
      "logy": 7177,
      "ory": 7178,
      "thous": 7179,
      "sess": 7180,
      "soda": 7181,
      "amanda": 7182,
      "plus": 7183,
      "wee": 7184,
      "addy": 7185,
      "adds": 7186,
      "necks": 7187,
      "boiled": 7188,
      "chin": 7189,
      "forgives": 7190,
      "rosa": 7191,
      "robert": 7192,
      "aret": 7193,
      "ula": 7194,
      "carries": 7195,
      "carni": 7196,
      "cooper": 7197,
      "mollie": 7198,
      "megan": 7199,
      "rani": 7200,
      "cheaper": 7201,
      "funn": 7202,
      "abandon": 7203,
      "caw": 7204,
      "cafe": 7205,
      "grumbled": 7206,
      "musa": 7207,
      "muster": 7208,
      "popping": 7209,
      "pres": 7210,
      "deck": 7211,
      "detail": 7212,
      "ruthie": 7213,
      "bleated": 7214,
      "justine": 7215,
      "ballerina": 7216,
      "untangled": 7217,
      "hardest": 7218,
      "expecting": 7219,
      "common": 7220,
      "compete": 7221,
      "braver": 7222,
      "beautifully": 7223,
      "johny": 7224,
      "plets": 7225,
      "appet": 7226,
      "dale": 7227,
      "talents": 7228,
      "headache": 7229,
      "disagreement": 7230,
      "disobeyed": 7231,
      "monica": 7232,
      "blamed": 7233,
      "ips": 7234,
      "iped": 7235,
      "singers": 7236,
      "flock": 7237,
      "droplets": 7238,
      "airplanes": 7239,
      "bait": 7240,
      "fireflies": 7241,
      "softness": 7242,
      "movements": 7243,
      "born": 7244,
      "colby": 7245,
      "sweetly": 7246,
      "messed": 7247,
      "tripping": 7248,
      "snowflakes": 7249,
      "matilda": 7250,
      "penelope": 7251,
      "joins": 7252,
      "pointer": 7253,
      "purchase": 7254,
      "gratefully": 7255,
      "scree": 7256,
      "boards": 7257,
      "boarded": 7258,
      "cupcake": 7259,
      "minded": 7260,
      "dripped": 7261,
      "alongside": 7262,
      "roundabout": 7263,
      "cowboys": 7264,
      "zoomy": 7265,
      "hugo": 7266,
      "belongings": 7267,
      "journeys": 7268,
      "larger": 7269,
      "flips": 7270,
      "feathered": 7271,
      "oceans": 7272,
      "layer": 7273,
      "charm": 7274,
      "tidied": 7275,
      "teapot": 7276,
      "bells": 7277,
      "bats": 7278,
      "trusty": 7279,
      "stuffing": 7280,
      "moonlight": 7281,
      "frustration": 7282,
      "gasp": 7283,
      "tickling": 7284,
      "teams": 7285,
      "pizzas": 7286,
      "guarding": 7287,
      "guardian": 7288,
      "tempted": 7289,
      "loyalty": 7290,
      "solving": 7291,
      "massages": 7292,
      "ponies": 7293,
      "wealth": 7294,
      "betsie": 7295,
      "quacking": 7296,
      "questioned": 7297,
      "sleigh": 7298,
      "experim": 7299,
      "musicians": 7300,
      "weighing": 7301,
      "hunters": 7302,
      "halfway": 7303,
      "improving": 7304,
      "communic": 7305,
      "sprinkle": 7306,
      "hedgehog": 7307,
      "demanding": 7308,
      "sneaks": 7309,
      "tastiest": 7310,
      "differences": 7311,
      "floaty": 7312,
      "sensation": 7313,
      "poisoned": 7314,
      "invites": 7315,
      "unicorns": 7316,
      "opinions": 7317,
      "chatting": 7318,
      "piggie": 7319,
      "sniffled": 7320,
      "supporting": 7321,
      "masterpiece": 7322,
      "swirls": 7323,
      "healthier": 7324,
      "rupert": 7325,
      "amongst": 7326,
      "gaps": 7327,
      "behaviour": 7328,
      "enemies": 7329,
      "peeped": 7330,
      "convince": 7331,
      "jodie": 7332,
      "shrugs": 7333,
      "blades": 7334,
      "lantern": 7335,
      "switched": 7336,
      "depths": 7337,
      "pleasant": 7338,
      "concentr": 7339,
      "stripey": 7340,
      "murphy": 7341,
      "tablet": 7342,
      "pandas": 7343,
      "theatre": 7344,
      "inseparable": 7345,
      "carnival": 7346,
      "communicate": 7347,
      "15": 7348,
      "crad": 7349,
      "dition": 7350,
      "fain": 7351,
      "gad": 7352,
      "giz": 7353,
      "gorge": 7354,
      "hlia": 7355,
      "ika": 7356,
      "jin": 7357,
      "jor": 7358,
      "killed": 7359,
      "lilli": 7360,
      "rises": 7361,
      "signing": 7362,
      "twit": 7363,
      "waded": 7364,
      "yor": 7365,
      "heather": 7366,
      "toad": 7367,
      "inting": 7368,
      "inju": 7369,
      "inches": 7370,
      "asted": 7371,
      "enger": 7372,
      "washes": 7373,
      "isted": 7374,
      "iding": 7375,
      "idence": 7376,
      "lori": 7377,
      "loses": 7378,
      "lobby": 7379,
      "thouse": 7380,
      "atha": 7381,
      "becomes": 7382,
      "beating": 7383,
      "hatched": 7384,
      "section": 7385,
      "kevin": 7386,
      "soo": 7387,
      "ades": 7388,
      "address": 7389,
      "unfair": 7390,
      "uncovered": 7391,
      "unicycle": 7392,
      "unloaded": 7393,
      "unfamiliar": 7394,
      "dock": 7395,
      "hollow": 7396,
      "nephew": 7397,
      "raked": 7398,
      "elves": 7399,
      "moons": 7400,
      "mest": 7401,
      "agatha": 7402,
      "foo": 7403,
      "joanna": 7404,
      "laby": 7405,
      "opy": 7406,
      "lush": 7407,
      "luca": 7408,
      "whined": 7409,
      "shame": 7410,
      "sami": 7411,
      "bbs": 7412,
      "spect": 7413,
      "angle": 7414,
      "angrier": 7415,
      "waking": 7416,
      "swish": 7417,
      "blessed": 7418,
      "runny": 7419,
      "venir": 7420,
      "overhead": 7421,
      "beary": 7422,
      "pail": 7423,
      "compe": 7424,
      "compar": 7425,
      "shinier": 7426,
      "flowed": 7427,
      "kinder": 7428,
      "acts": 7429,
      "itsy": 7430,
      "tingling": 7431,
      "ladies": 7432,
      "percy": 7433,
      "jumpy": 7434,
      "trey": 7435,
      "treas": 7436,
      "fleas": 7437,
      "condition": 7438,
      "realizing": 7439,
      "slight": 7440,
      "member": 7441,
      "parrots": 7442,
      "dahlia": 7443,
      "grandchild": 7444,
      "owns": 7445,
      "listener": 7446,
      "disaster": 7447,
      "morty": 7448,
      "blur": 7449,
      "brightened": 7450,
      "tablecloth": 7451,
      "guided": 7452,
      "yelped": 7453,
      "tops": 7454,
      "flashes": 7455,
      "woody": 7456,
      "woodcutter": 7457,
      "winding": 7458,
      "hunger": 7459,
      "snowing": 7460,
      "mornings": 7461,
      "pennies": 7462,
      "purpose": 7463,
      "scrun": 7464,
      "townspe": 7465,
      "mitts": 7466,
      "mindful": 7467,
      "dances": 7468,
      "drip": 7469,
      "healing": 7470,
      "partner": 7471,
      "owls": 7472,
      "hudd": 7473,
      "huffed": 7474,
      "milkshake": 7475,
      "tunes": 7476,
      "tiara": 7477,
      "melvin": 7478,
      "rosemary": 7479,
      "horri": 7480,
      "flipper": 7481,
      "designing": 7482,
      "mattered": 7483,
      "charley": 7484,
      "tests": 7485,
      "calmer": 7486,
      "wheeled": 7487,
      "protection": 7488,
      "meadows": 7489,
      "nibbling": 7490,
      "groups": 7491,
      "necklaces": 7492,
      "exams": 7493,
      "tickles": 7494,
      "incredibly": 7495,
      "checkout": 7496,
      "harmful": 7497,
      "trunks": 7498,
      "alligators": 7499,
      "leah": 7500,
      "sneezes": 7501,
      "caterpillars": 7502,
      "obediently": 7503,
      "furious": 7504,
      "access": 7505,
      "apology": 7506,
      "hurrying": 7507,
      "rewarding": 7508,
      "laws": 7509,
      "hoops": 7510,
      "chubbs": 7511,
      "wiggles": 7512,
      "repairs": 7513,
      "repairing": 7514,
      "bucky": 7515,
      "avoided": 7516,
      "launched": 7517,
      "zippers": 7518,
      "resisting": 7519,
      "crowded": 7520,
      "surrounding": 7521,
      "maths": 7522,
      "community": 7523,
      "surfers": 7524,
      "unlocking": 7525,
      "twists": 7526,
      "introducing": 7527,
      "banging": 7528,
      "louie": 7529,
      "lumberjack": 7530,
      "mooing": 7531,
      "approach": 7532,
      "miracle": 7533,
      "warmest": 7534,
      "scratchy": 7535,
      "aware": 7536,
      "confidence": 7537,
      "nightmares": 7538,
      "tuesdays": 7539,
      "lizzi": 7540,
      "pecking": 7541,
      "tamika": 7542,
      "instant": 7543,
      "connection": 7544,
      "lullaby": 7545,
      "oliver": 7546,
      "projects": 7547,
      "coolest": 7548,
      "blues": 7549,
      "disagreeing": 7550,
      "deeply": 7551,
      "character": 7552,
      "trades": 7553,
      "bombs": 7554,
      "firefighters": 7555,
      "snorted": 7556,
      "knitting": 7557,
      "heights": 7558,
      "imaginary": 7559,
      "imaginations": 7560,
      "pippa": 7561,
      "blade": 7562,
      "juggy": 7563,
      "pounds": 7564,
      "stroller": 7565,
      "wrinkled": 7566,
      "jasper": 7567,
      "souvenir": 7568,
      "tracey": 7569,
      "popsicle": 7570,
      "acles": 7571,
      "glared": 7572,
      "positive": 7573,
      "energized": 7574,
      "double": 7575,
      "galloped": 7576,
      "absolutely": 7577,
      "detect": 7578,
      "lighthouse": 7579,
      "revved": 7580,
      "abandoned": 7581,
      "mustered": 7582,
      "faint": 7583,
      "gizmo": 7584,
      "gorgeous": 7585,
      "townspeople": 7586,
      "\"!": 7587,
      "aho": 7588,
      "bum": 7589,
      "clue": 7590,
      "dara": 7591,
      "dled": 7592,
      "dory": 7593,
      "fto": 7594,
      "fif": 7595,
      "fara": 7596,
      "gle": 7597,
      "gul": 7598,
      "gail": 7599,
      "ishes": 7600,
      "lat": 7601,
      "lump": 7602,
      "mara": 7603,
      "nations": 7604,
      "odo": 7605,
      "pouch": 7606,
      "pounced": 7607,
      "rins": 7608,
      "som": 7609,
      "site": 7610,
      "sipped": 7611,
      "ssess": 7612,
      "tang": 7613,
      "tugging": 7614,
      "ua": 7615,
      "ura": 7616,
      "wicked": 7617,
      "yage": 7618,
      "hee": 7619,
      "theodo": 7620,
      "anth": 7621,
      "angr": 7622,
      "tot": 7623,
      "tow": 7624,
      "inched": 7625,
      "remony": 7626,
      "hare": 7627,
      "ersa": 7628,
      "army": 7629,
      "isbee": 7630,
      "sabr": 7631,
      "sacks": 7632,
      "lefto": 7633,
      "album": 7634,
      "stun": 7635,
      "stur": 7636,
      "ats": 7637,
      "attemp": 7638,
      "irly": 7639,
      "hatty": 7640,
      "nook": 7641,
      "cel": 7642,
      "ceremony": 7643,
      "aming": 7644,
      "ppies": 7645,
      "ricity": 7646,
      "admit": 7647,
      "undo": 7648,
      "undone": 7649,
      "unload": 7650,
      "dodging": 7651,
      "bold": 7652,
      "playroom": 7653,
      "forwards": 7654,
      "ounce": 7655,
      "littlest": 7656,
      "rack": 7657,
      "spar": 7658,
      "sprung": 7659,
      "cody": 7660,
      "coiled": 7661,
      "moat": 7662,
      "mold": 7663,
      "moppy": 7664,
      "frisbee": 7665,
      "benita": 7666,
      "shuff": 7667,
      "tale": 7668,
      "umbling": 7669,
      "foam": 7670,
      "joanne": 7671,
      "laure": 7672,
      "laura": 7673,
      "capes": 7674,
      "lleng": 7675,
      "whirl": 7676,
      "whine": 7677,
      "bras": 7678,
      "brandy": 7679,
      "possess": 7680,
      "poppies": 7681,
      "devast": 7682,
      "anyways": 7683,
      "overheard": 7684,
      "dylan": 7685,
      "harriet": 7686,
      "combs": 7687,
      "bertie": 7688,
      "sooner": 7689,
      "fived": 7690,
      "venture": 7691,
      "joyfully": 7692,
      "wondr": 7693,
      "mums": 7694,
      "keepers": 7695,
      "winners": 7696,
      "doorstep": 7697,
      "dollar": 7698,
      "grandad": 7699,
      "voyage": 7700,
      "bunbun": 7701,
      "blob": 7702,
      "differently": 7703,
      "dina": 7704,
      "ashley": 7705,
      "cracks": 7706,
      "riverbank": 7707,
      "sweetness": 7708,
      "farmers": 7709,
      "mini": 7710,
      "cases": 7711,
      "hotdog": 7712,
      "mats": 7713,
      "jennif": 7714,
      "zebras": 7715,
      "eleven": 7716,
      "fluff": 7717,
      "signature": 7718,
      "baskets": 7719,
      "jets": 7720,
      "bubbly": 7721,
      "bubbled": 7722,
      "bubbling": 7723,
      "teacup": 7724,
      "juices": 7725,
      "cowboy": 7726,
      "lunchbox": 7727,
      "owlbee": 7728,
      "psed": 7729,
      "challeng": 7730,
      "cutest": 7731,
      "milky": 7732,
      "nestled": 7733,
      "fanc": 7734,
      "patients": 7735,
      "wrapper": 7736,
      "melts": 7737,
      "collector": 7738,
      "protector": 7739,
      "flick": 7740,
      "hopeless": 7741,
      "widely": 7742,
      "service": 7743,
      "mysteries": 7744,
      "speck": 7745,
      "curl": 7746,
      "osite": 7747,
      "pinching": 7748,
      "ankle": 7749,
      "numbered": 7750,
      "nibbled": 7751,
      "paste": 7752,
      "passes": 7753,
      "feeder": 7754,
      "eldest": 7755,
      "priv": 7756,
      "grownup": 7757,
      "grownups": 7758,
      "gumball": 7759,
      "snuggling": 7760,
      "blooms": 7761,
      "crystals": 7762,
      "cartwheel": 7763,
      "streams": 7764,
      "regularly": 7765,
      "rescuing": 7766,
      "fiercely": 7767,
      "delightful": 7768,
      "meows": 7769,
      "seriously": 7770,
      "persistence": 7771,
      "bicycles": 7772,
      "hooked": 7773,
      "cupboards": 7774,
      "stacks": 7775,
      "wiggling": 7776,
      "impatiently": 7777,
      "campsite": 7778,
      "yawns": 7779,
      "weeny": 7780,
      "fishermen": 7781,
      "completing": 7782,
      "clip": 7783,
      "bulls": 7784,
      "spikes": 7785,
      "sincere": 7786,
      "niece": 7787,
      "dustpan": 7788,
      "champ": 7789,
      "entertain": 7790,
      "pinchy": 7791,
      "shortcut": 7792,
      "flooding": 7793,
      "applauding": 7794,
      "ahh": 7795,
      "groan": 7796,
      "disappearing": 7797,
      "challenged": 7798,
      "holidays": 7799,
      "surrendering": 7800,
      "villager": 7801,
      "kyla": 7802,
      "weapons": 7803,
      "munch": 7804,
      "chatter": 7805,
      "equally": 7806,
      "cindi": 7807,
      "squealing": 7808,
      "motioned": 7809,
      "choosing": 7810,
      "laptop": 7811,
      "cooled": 7812,
      "stomp": 7813,
      "wilder": 7814,
      "annabelle": 7815,
      "mesmerised": 7816,
      "route": 7817,
      "echoing": 7818,
      "annoying": 7819,
      "opposite": 7820,
      "winks": 7821,
      "stained": 7822,
      "peasant": 7823,
      "savannah": 7824,
      "nearer": 7825,
      "scientists": 7826,
      "lasted": 7827,
      "pounding": 7828,
      "switches": 7829,
      "jason": 7830,
      "marveled": 7831,
      "electricity": 7832,
      "bopus": 7833,
      "complimented": 7834,
      "lorry": 7835,
      "collapsed": 7836,
      "teeny": 7837,
      "contentedly": 7838,
      "juiciest": 7839,
      "toppings": 7840,
      "funniest": 7841,
      "presence": 7842,
      "appetite": 7843,
      "screech": 7844,
      "experiment": 7845,
      "gadgets": 7846,
      "jordan": 7847,
      "compared": 7848,
      "treasured": 7849,
      "huddled": 7850,
      "ahoy": 7851,
      "rinsed": 7852,
      "somersa": 7853,
      "theodore": 7854,
      "angrily": 7855,
      "sabrina": 7856,
      "sturdy": 7857,
      "attempts": 7858,
      "wondrous": 7859,
      "jennifer": 7860,
      "'.\"": 7861,
      "20": 7862,
      "aum": 7863,
      "bam": 7864,
      "bour": 7865,
      "bink": 7866,
      "bster": 7867,
      "chad": 7868,
      "cate": 7869,
      "cies": 7870,
      "cqueen": 7871,
      "crush": 7872,
      "groom": 7873,
      "hanna": 7874,
      "hmm": 7875,
      "hank": 7876,
      "ikin": 7877,
      "jured": 7878,
      "leng": 7879,
      "mend": 7880,
      "miley": 7881,
      "mcqueen": 7882,
      "ore": 7883,
      "oars": 7884,
      "oos": 7885,
      "oscope": 7886,
      "pandy": 7887,
      "prank": 7888,
      "rom": 7889,
      "rir": 7890,
      "rinse": 7891,
      "rita": 7892,
      "riley": 7893,
      "sizz": 7894,
      "tir": 7895,
      "tut": 7896,
      "twel": 7897,
      "tata": 7898,
      "tessa": 7899,
      "vit": 7900,
      "willy": 7901,
      "willi": 7902,
      "zac": 7903,
      "ziest": 7904,
      "anced": 7905,
      "information": 7906,
      "injured": 7907,
      "ites": 7908,
      "react": 7909,
      "rebecca": 7910,
      "err": 7911,
      "erts": 7912,
      "arissa": 7913,
      "ister": 7914,
      "ilder": 7915,
      "lever": 7916,
      "aloud": 7917,
      "local": 7918,
      "loos": 7919,
      "lobster": 7920,
      "oray": 7921,
      "ories": 7922,
      "steven": 7923,
      "strolled": 7924,
      "thoscope": 7925,
      "atmo": 7926,
      "beware": 7927,
      "cece": 7928,
      "sets": 7929,
      "secur": 7930,
      "solid": 7931,
      "ambit": 7932,
      "pling": 7933,
      "riches": 7934,
      "ada": 7935,
      "adele": 7936,
      "unable": 7937,
      "unwrapped": 7938,
      "unzip": 7939,
      "dozed": 7940,
      "hooray": 7941,
      "chug": 7942,
      "wance": 7943,
      "maje": 7944,
      "maia": 7945,
      "rae": 7946,
      "racer": 7947,
      "ravi": 7948,
      "smash": 7949,
      "fries": 7950,
      "spic": 7951,
      "spied": 7952,
      "sphere": 7953,
      "suspic": 7954,
      "cara": 7955,
      "cargo": 7956,
      "cops": 7957,
      "motions": 7958,
      "meets": 7959,
      "shif": 7960,
      "shrank": 7961,
      "shorts": 7962,
      "tah": 7963,
      "taped": 7964,
      "folly": 7965,
      "ics": 7966,
      "ical": 7967,
      "icated": 7968,
      "pred": 7969,
      "prison": 7970,
      "pest": 7971,
      "peggy": 7972,
      "icky": 7973,
      "seeking": 7974,
      "gruff": 7975,
      "oping": 7976,
      "whoa": 7977,
      "llut": 7978,
      "quiver": 7979,
      "whizz": 7980,
      "builder": 7981,
      "pollut": 7982,
      "shaky": 7983,
      "atest": 7984,
      "tech": 7985,
      "antlers": 7986,
      "catty": 7987,
      "device": 7988,
      "details": 7989,
      "fins": 7990,
      "cleo": 7991,
      "usion": 7992,
      "umph": 7993,
      "untangle": 7994,
      "harvest": 7995,
      "harbour": 7996,
      "clarissa": 7997,
      "nicest": 7998,
      "olly": 7999,
      "braid": 8000,
      "brake": 8001,
      "braced": 8002,
      "underwater": 8003,
      "gardening": 8004,
      "pleaded": 8005,
      "connor": 8006,
      "reality": 8007,
      "rowave": 8008,
      "trudged": 8009,
      "winnie": 8010,
      "parades": 8011,
      "liest": 8012,
      "grandchildren": 8013,
      "marcy": 8014,
      "stethoscope": 8015,
      "cooks": 8016,
      "hearted": 8017,
      "greater": 8018,
      "vows": 8019,
      "importantly": 8020,
      "rightful": 8021,
      "displaying": 8022,
      "creams": 8023,
      "blame": 8024,
      "sitter": 8025,
      "lightly": 8026,
      "owen": 8027,
      "baloo": 8028,
      "firecat": 8029,
      "firetruck": 8030,
      "painful": 8031,
      "magically": 8032,
      "process": 8033,
      "cora": 8034,
      "promising": 8035,
      "claus": 8036,
      "pedalled": 8037,
      "patric": 8038,
      "babysitter": 8039,
      "minty": 8040,
      "barbie": 8041,
      "reeds": 8042,
      "casper": 8043,
      "triumph": 8044,
      "dson": 8045,
      "studi": 8046,
      "ava": 8047,
      "browny": 8048,
      "appearance": 8049,
      "tailor": 8050,
      "luckiest": 8051,
      "passion": 8052,
      "signal": 8053,
      "cheetah": 8054,
      "freely": 8055,
      "bellies": 8056,
      "bubbleg": 8057,
      "steadily": 8058,
      "tentacles": 8059,
      "sugary": 8060,
      "jars": 8061,
      "shipwreck": 8062,
      "glanced": 8063,
      "zoomer": 8064,
      "hudson": 8065,
      "easter": 8066,
      "nests": 8067,
      "sicker": 8068,
      "sickness": 8069,
      "washcloth": 8070,
      "interest": 8071,
      "ratty": 8072,
      "incts": 8073,
      "copied": 8074,
      "bruise": 8075,
      "burgers": 8076,
      "bullies": 8077,
      "microwave": 8078,
      "striped": 8079,
      "trusting": 8080,
      "stirs": 8081,
      "chewy": 8082,
      "numbering": 8083,
      "clearly": 8084,
      "screec": 8085,
      "crum": 8086,
      "employ": 8087,
      "jeweler": 8088,
      "kenny": 8089,
      "ticking": 8090,
      "thanksgiving": 8091,
      "checking": 8092,
      "digger": 8093,
      "oohed": 8094,
      "pals": 8095,
      "polka": 8096,
      "camel": 8097,
      "bolt": 8098,
      "kangaroos": 8099,
      "risk": 8100,
      "risky": 8101,
      "toothbrush": 8102,
      "thoughtfully": 8103,
      "lenore": 8104,
      "sleeve": 8105,
      "haircuts": 8106,
      "destroying": 8107,
      "pistols": 8108,
      "springtime": 8109,
      "threaded": 8110,
      "clips": 8111,
      "bins": 8112,
      "desserts": 8113,
      "burns": 8114,
      "meatballs": 8115,
      "sprout": 8116,
      "trailer": 8117,
      "experiences": 8118,
      "grinning": 8119,
      "desks": 8120,
      "mugs": 8121,
      "simon": 8122,
      "sips": 8123,
      "emergencies": 8124,
      "invitations": 8125,
      "receiving": 8126,
      "honor": 8127,
      "rumma": 8128,
      "youths": 8129,
      "pipes": 8130,
      "encouragement": 8131,
      "instincts": 8132,
      "puffed": 8133,
      "connect": 8134,
      "gleefully": 8135,
      "deserved": 8136,
      "brianna": 8137,
      "lambikin": 8138,
      "sobbing": 8139,
      "swirling": 8140,
      "sleds": 8141,
      "centiped": 8142,
      "sidney": 8143,
      "jeans": 8144,
      "allowance": 8145,
      "spatula": 8146,
      "swapped": 8147,
      "managing": 8148,
      "pyjamas": 8149,
      "deeds": 8150,
      "scribbled": 8151,
      "scribbles": 8152,
      "shimmering": 8153,
      "north": 8154,
      "interrup": 8155,
      "gooey": 8156,
      "spiky": 8157,
      "encountered": 8158,
      "alyx": 8159,
      "hovered": 8160,
      "guesses": 8161,
      "jingle": 8162,
      "zeros": 8163,
      "thousands": 8164,
      "competing": 8165,
      "scrunched": 8166,
      "horrible": 8167,
      "accessories": 8168,
      "fifi": 8169,
      "latch": 8170,
      "totally": 8171,
      "shuffled": 8172,
      "devastated": 8173,
      "champion": 8174,
      "aumana": 8175,
      "length": 8176,
      "riri": 8177,
      "tiring": 8178,
      "tutu": 8179,
      "twelve": 8180,
      "william": 8181,
      "atmosphere": 8182,
      "suspicious": 8183,
      "patricia": 8184,
      "studio": 8185,
      "bubblegum": 8186,
      "lambikins": 8187,
      "centipede": 8188,
      "''": 8189,
      "?,\"": 8190,
      "aire": 8191,
      "bid": 8192,
      "cit": 8193,
      "cru": 8194,
      "cting": 8195,
      "cila": 8196,
      "cds": 8197,
      "cages": 8198,
      "damp": 8199,
      "fare": 8200,
      "gripped": 8201,
      "garet": 8202,
      "hy": 8203,
      "hips": 8204,
      "ipp": 8205,
      "jig": 8206,
      "jana": 8207,
      "kil": 8208,
      "lal": 8209,
      "lur": 8210,
      "lla": 8211,
      "monce": 8212,
      "mie": 8213,
      "milla": 8214,
      "mallo": 8215,
      "nn": 8216,
      "nast": 8217,
      "pave": 8218,
      "pier": 8219,
      "pads": 8220,
      "ridge": 8221,
      "sul": 8222,
      "tad": 8223,
      "twent": 8224,
      "tate": 8225,
      "tink": 8226,
      "tanya": 8227,
      "vig": 8228,
      "vated": 8229,
      "vines": 8230,
      "xand": 8231,
      "yipp": 8232,
      "’.": 8233,
      "heated": 8234,
      "thest": 8235,
      "ande": 8236,
      "indoors": 8237,
      "itched": 8238,
      "reled": 8239,
      "assured": 8240,
      "haps": 8241,
      "haley": 8242,
      "ering": 8243,
      "arno": 8244,
      "ingly": 8245,
      "idy": 8246,
      "sapling": 8247,
      "alas": 8248,
      "altogether": 8249,
      "albert": 8250,
      "ima": 8251,
      "loat": 8252,
      "orgi": 8253,
      "stall": 8254,
      "strea": 8255,
      "stray": 8256,
      "stings": 8257,
      "stiff": 8258,
      "stacy": 8259,
      "endant": 8260,
      "endings": 8261,
      "hatch": 8262,
      "nola": 8263,
      "sean": 8264,
      "seth": 8265,
      "keen": 8266,
      "soggy": 8267,
      "excell": 8268,
      "existed": 8269,
      "igade": 8270,
      "amos": 8271,
      "placing": 8272,
      "pples": 8273,
      "richer": 8274,
      "ripples": 8275,
      "ading": 8276,
      "adab": 8277,
      "adop": 8278,
      "unkind": 8279,
      "unless": 8280,
      "unforget": 8281,
      "unks": 8282,
      "unnecessary": 8283,
      "lynn": 8284,
      "neater": 8285,
      "boomed": 8286,
      "playdate": 8287,
      "forced": 8288,
      "fet": 8289,
      "roles": 8290,
      "tless": 8291,
      "gella": 8292,
      "georgi": 8293,
      "maps": 8294,
      "outstretched": 8295,
      "racoon": 8296,
      "spy": 8297,
      "carve": 8298,
      "carton": 8299,
      "fulfilled": 8300,
      "shi": 8301,
      "agent": 8302,
      "background": 8303,
      "cheating": 8304,
      "icent": 8305,
      "prof": 8306,
      "pecks": 8307,
      "abc": 8308,
      "abrac": 8309,
      "abilities": 8310,
      "grade": 8311,
      "maddy": 8312,
      "putri": 8313,
      "goods": 8314,
      "homeless": 8315,
      "walt": 8316,
      "lucila": 8317,
      "whir": 8318,
      "whining": 8319,
      "brigade": 8320,
      "buoy": 8321,
      "afloat": 8322,
      "typing": 8323,
      "poof": 8324,
      "doghouse": 8325,
      "prefer": 8326,
      "def": 8327,
      "wavy": 8328,
      "afterward": 8329,
      "anybody": 8330,
      "suns": 8331,
      "spool": 8332,
      "greta": 8333,
      "gregor": 8334,
      "greatest": 8335,
      "clare": 8336,
      "compare": 8337,
      "beavers": 8338,
      "acul": 8339,
      "rainforest": 8340,
      "brow": 8341,
      "persu": 8342,
      "persever": 8343,
      "fambi": 8344,
      "ption": 8345,
      "cont": 8346,
      "confe": 8347,
      "connie": 8348,
      "realise": 8349,
      "realizes": 8350,
      "rowing": 8351,
      "emmy": 8352,
      "embrace": 8353,
      "marco": 8354,
      "margaret": 8355,
      "stepping": 8356,
      "hairs": 8357,
      "nightstand": 8358,
      "nightfall": 8359,
      "owning": 8360,
      "bluey": 8361,
      "disobey": 8362,
      "meanings": 8363,
      "choke": 8364,
      "warming": 8365,
      "sita": 8366,
      "cutters": 8367,
      "keyhole": 8368,
      "gladly": 8369,
      "craft": 8370,
      "proce": 8371,
      "proven": 8372,
      "ladybird": 8373,
      "claw": 8374,
      "woodworker": 8375,
      "windmill": 8376,
      "gener": 8377,
      "holder": 8378,
      "grac": 8379,
      "squirmed": 8380,
      "twigg": 8381,
      "splits": 8382,
      "amazingly": 8383,
      "jaws": 8384,
      "purring": 8385,
      "passenger": 8386,
      "belief": 8387,
      "hidey": 8388,
      "phones": 8389,
      "dragging": 8390,
      "umbly": 8391,
      "mustaches": 8392,
      "drying": 8393,
      "towns": 8394,
      "minding": 8395,
      "jeannie": 8396,
      "sharpen": 8397,
      "slippers": 8398,
      "smoother": 8399,
      "scow": 8400,
      "lunchtime": 8401,
      "snapping": 8402,
      "circled": 8403,
      "addition": 8404,
      "spinner": 8405,
      "zooms": 8406,
      "distra": 8407,
      "duke": 8408,
      "melinda": 8409,
      "miracul": 8410,
      "invol": 8411,
      "descri": 8412,
      "desire": 8413,
      "eyed": 8414,
      "cornfield": 8415,
      "barky": 8416,
      "bruises": 8417,
      "burt": 8418,
      "calms": 8419,
      "stretcher": 8420,
      "destru": 8421,
      "zookeepers": 8422,
      "protective": 8423,
      "batch": 8424,
      "isabelle": 8425,
      "striking": 8426,
      "glows": 8427,
      "elders": 8428,
      "soapy": 8429,
      "suggesting": 8430,
      "chirps": 8431,
      "frightening": 8432,
      "pricked": 8433,
      "fatima": 8434,
      "rarely": 8435,
      "independence": 8436,
      "crops": 8437,
      "accep": 8438,
      "crickets": 8439,
      "combing": 8440,
      "ravens": 8441,
      "playfully": 8442,
      "agreeing": 8443,
      "silently": 8444,
      "messages": 8445,
      "cherished": 8446,
      "fourth": 8447,
      "cracking": 8448,
      "tonya": 8449,
      "angelina": 8450,
      "lawman": 8451,
      "friendships": 8452,
      "moderation": 8453,
      "intelligence": 8454,
      "beeping": 8455,
      "separating": 8456,
      "scolding": 8457,
      "chanted": 8458,
      "porridge": 8459,
      "begging": 8460,
      "releasing": 8461,
      "sends": 8462,
      "speaks": 8463,
      "windowsill": 8464,
      "crows": 8465,
      "quarreled": 8466,
      "pauline": 8467,
      "peeks": 8468,
      "zork": 8469,
      "discussion": 8470,
      "remains": 8471,
      "command": 8472,
      "razors": 8473,
      "possib": 8474,
      "festivals": 8475,
      "joshua": 8476,
      "april": 8477,
      "shoots": 8478,
      "brains": 8479,
      "complicated": 8480,
      "veterinarians": 8481,
      "foggy": 8482,
      "flavours": 8483,
      "tips": 8484,
      "styles": 8485,
      "herbie": 8486,
      "bathed": 8487,
      "hesitantly": 8488,
      "poisonous": 8489,
      "property": 8490,
      "recommending": 8491,
      "awoken": 8492,
      "veils": 8493,
      "ferris": 8494,
      "bleeds": 8495,
      "diet": 8496,
      "caution": 8497,
      "janessa": 8498,
      "tamer": 8499,
      "heels": 8500,
      "smartest": 8501,
      "bobbi": 8502,
      "bobbed": 8503,
      "blub": 8504,
      "hamburger": 8505,
      "wheeee": 8506,
      "willow": 8507,
      "swirled": 8508,
      "nudged": 8509,
      "pingo": 8510,
      "sternly": 8511,
      "squawked": 8512,
      "tradition": 8513,
      "trigger": 8514,
      "dips": 8515,
      "tilley": 8516,
      "panting": 8517,
      "defeat": 8518,
      "savor": 8519,
      "millionaire": 8520,
      "lasers": 8521,
      "magnificent": 8522,
      "stitched": 8523,
      "desperately": 8524,
      "shimmered": 8525,
      "grumpiness": 8526,
      "crissy": 8527,
      "crispy": 8528,
      "soul": 8529,
      "stanley": 8530,
      "lilies": 8531,
      "whimper": 8532,
      "whimpered": 8533,
      "helena": 8534,
      "faithful": 8535,
      "biba": 8536,
      "pouts": 8537,
      "clutched": 8538,
      "eliana": 8539,
      "snoopy": 8540,
      "slurped": 8541,
      "katrina": 8542,
      "victorious": 8543,
      "culture": 8544,
      "concentrated": 8545,
      "slightly": 8546,
      "lumberjacks": 8547,
      "detective": 8548,
      "gulped": 8549,
      "anthony": 8550,
      "stunned": 8551,
      "groaned": 8552,
      "wilderness": 8553,
      "bamboo": 8554,
      "romy": 8555,
      "security": 8556,
      "ambition": 8557,
      "shifted": 8558,
      "screeched": 8559,
      "crumpled": 8560,
      "rummaged": 8561,
      "cruel": 8562,
      "farewell": 8563,
      "lala": 8564,
      "moncey": 8565,
      "mallory": 8566,
      "nasti": 8567,
      "pavement": 8568,
      "twenty": 8569,
      "xander": 8570,
      "yippee": 8571,
      "arnold": 8572,
      "excellent": 8573,
      "adabra": 8574,
      "unforgettable": 8575,
      "georgia": 8576,
      "abracadabra": 8577,
      "gregory": 8578,
      "twiggy": 8579,
      "possibilities": 8580,
      "'!\"": 8581,
      "12": 8582,
      "30": 8583,
      "?'.": 8584,
      "abe": 8585,
      "atop": 8586,
      "aquar": 8587,
      "bind": 8588,
      "bla": 8589,
      "blake": 8590,
      "cine": 8591,
      "coup": 8592,
      "dv": 8593,
      "dash": 8594,
      "dande": 8595,
      "eer": 8596,
      "eved": 8597,
      "ffle": 8598,
      "fade": 8599,
      "fert": 8600,
      "gal": 8601,
      "gummy": 8602,
      "gav": 8603,
      "glistening": 8604,
      "humbly": 8605,
      "jed": 8606,
      "jak": 8607,
      "jada": 8608,
      "ko": 8609,
      "kari": 8610,
      "lish": 8611,
      "liness": 8612,
      "longest": 8613,
      "nug": 8614,
      "narrow": 8615,
      "nari": 8616,
      "pendant": 8617,
      "ras": 8618,
      "riddle": 8619,
      "rumbled": 8620,
      "shat": 8621,
      "sion": 8622,
      "sass": 8623,
      "tar": 8624,
      "till": 8625,
      "var": 8626,
      "vain": 8627,
      "vious": 8628,
      "ww": 8629,
      "woken": 8630,
      "yl": 8631,
      "yu": 8632,
      "yol": 8633,
      "ñata": 8634,
      "heeded": 8635,
      "anie": 8636,
      "intimid": 8637,
      "itches": 8638,
      "reme": 8639,
      "rejo": 8640,
      "ress": 8641,
      "rewards": 8642,
      "rebuilt": 8643,
      "reaction": 8644,
      "online": 8645,
      "arom": 8646,
      "arch": 8647,
      "aries": 8648,
      "arrested": 8649,
      "archie": 8650,
      "ingu": 8651,
      "ista": 8652,
      "iliz": 8653,
      "lepre": 8654,
      "leigh": 8655,
      "als": 8656,
      "ality": 8657,
      "alison": 8658,
      "alvin": 8659,
      "stic": 8660,
      "hates": 8661,
      "seated": 8662,
      "sobs": 8663,
      "amber": 8664,
      "pluck": 8665,
      "ppity": 8666,
      "unit": 8667,
      "unsafe": 8668,
      "ungrateful": 8669,
      "uniting": 8670,
      "unfreeze": 8671,
      "liana": 8672,
      "hoppity": 8673,
      "boof": 8674,
      "extreme": 8675,
      "extingu": 8676,
      "roam": 8677,
      "rods": 8678,
      "roasted": 8679,
      "mable": 8680,
      "outcome": 8681,
      "rage": 8682,
      "smoking": 8683,
      "span": 8684,
      "carp": 8685,
      "carved": 8686,
      "carriage": 8687,
      "elace": 8688,
      "code": 8689,
      "frisky": 8690,
      "ecstat": 8691,
      "illas": 8692,
      "shu": 8693,
      "tapes": 8694,
      "ranced": 8695,
      "cheat": 8696,
      "cheated": 8697,
      "everytime": 8698,
      "lavend": 8699,
      "caps": 8700,
      "gras": 8701,
      "gramp": 8702,
      "grumbling": 8703,
      "options": 8704,
      "ddies": 8705,
      "ssy": 8706,
      "luce": 8707,
      "woah": 8708,
      "quen": 8709,
      "brad": 8710,
      "brrr": 8711,
      "buddies": 8712,
      "posed": 8713,
      "downtown": 8714,
      "samson": 8715,
      "scaredy": 8716,
      "clothing": 8717,
      "ouring": 8718,
      "ruff": 8719,
      "donna": 8720,
      "mier": 8721,
      "miami": 8722,
      "sunk": 8723,
      "venge": 8724,
      "creaking": 8725,
      "overflowing": 8726,
      "handy": 8727,
      "handles": 8728,
      "reader": 8729,
      "harmony": 8730,
      "clung": 8731,
      "compromise": 8732,
      "izens": 8733,
      "tingle": 8734,
      "perked": 8735,
      "perhaps": 8736,
      "cycled": 8737,
      "brag": 8738,
      "shoelace": 8739,
      "cupped": 8740,
      "grounds": 8741,
      "pics": 8742,
      "winking": 8743,
      "parting": 8744,
      "paramed": 8745,
      "embraced": 8746,
      "grandparent": 8747,
      "marvel": 8748,
      "steered": 8749,
      "hairstyle": 8750,
      "enjoyable": 8751,
      "disk": 8752,
      "disput": 8753,
      "tiniest": 8754,
      "strongly": 8755,
      "toucan": 8756,
      "toucans": 8757,
      "ipes": 8758,
      "swell": 8759,
      "misty": 8760,
      "frost": 8761,
      "warmed": 8762,
      "keyboard": 8763,
      "firewood": 8764,
      "topher": 8765,
      "toppled": 8766,
      "storybook": 8767,
      "tenth": 8768,
      "craziest": 8769,
      "cory": 8770,
      "coolness": 8771,
      "fixes": 8772,
      "sations": 8773,
      "patting": 8774,
      "swimmy": 8775,
      "swimmer": 8776,
      "swimsuits": 8777,
      "sleepover": 8778,
      "tightened": 8779,
      "farms": 8780,
      "raya": 8781,
      "buys": 8782,
      "duckie": 8783,
      "ducklings": 8784,
      "chili": 8785,
      "minnow": 8786,
      "juno": 8787,
      "juliana": 8788,
      "barrow": 8789,
      "farthest": 8790,
      "farleigh": 8791,
      "graham": 8792,
      "wetter": 8793,
      "fairly": 8794,
      "musical": 8795,
      "knobs": 8796,
      "beebee": 8797,
      "toni": 8798,
      "zeke": 8799,
      "artment": 8800,
      "scrubbing": 8801,
      "fitting": 8802,
      "mmmm": 8803,
      "loneliness": 8804,
      "cowgirls": 8805,
      "glide": 8806,
      "glider": 8807,
      "gliding": 8808,
      "pancake": 8809,
      "chaun": 8810,
      "chaos": 8811,
      "piled": 8812,
      "fans": 8813,
      "stormy": 8814,
      "lifetime": 8815,
      "tippy": 8816,
      "tiana": 8817,
      "melissa": 8818,
      "melanie": 8819,
      "birthdays": 8820,
      "honeybees": 8821,
      "horror": 8822,
      "mailboxes": 8823,
      "respecting": 8824,
      "whipped": 8825,
      "breadcrumbs": 8826,
      "bruised": 8827,
      "specks": 8828,
      "stretches": 8829,
      "wheelbarrow": 8830,
      "isaac": 8831,
      "strict": 8832,
      "embarrassing": 8833,
      "chews": 8834,
      "hangs": 8835,
      "polishes": 8836,
      "fearless": 8837,
      "smoothie": 8838,
      "saucers": 8839,
      "peculi": 8840,
      "strut": 8841,
      "pastor": 8842,
      "weaker": 8843,
      "tickly": 8844,
      "former": 8845,
      "flashlights": 8846,
      "prizes": 8847,
      "recordings": 8848,
      "films": 8849,
      "piñata": 8850,
      "patchy": 8851,
      "sells": 8852,
      "digs": 8853,
      "stamping": 8854,
      "stalk": 8855,
      "hammering": 8856,
      "collars": 8857,
      "spaces": 8858,
      "guarded": 8859,
      "courageous": 8860,
      "pumped": 8861,
      "borrowing": 8862,
      "lexi": 8863,
      "crosses": 8864,
      "cuddling": 8865,
      "salsa": 8866,
      "leans": 8867,
      "succeeding": 8868,
      "seals": 8869,
      "suitcases": 8870,
      "trumpets": 8871,
      "gorillas": 8872,
      "sofia": 8873,
      "doves": 8874,
      "views": 8875,
      "recipes": 8876,
      "cheryl": 8877,
      "supermarket": 8878,
      "handlebars": 8879,
      "anxiously": 8880,
      "crackle": 8881,
      "pepperoni": 8882,
      "marrying": 8883,
      "woolly": 8884,
      "aids": 8885,
      "bumping": 8886,
      "shades": 8887,
      "quacky": 8888,
      "lamps": 8889,
      "stacking": 8890,
      "harshly": 8891,
      "shoebox": 8892,
      "obst": 8893,
      "buckles": 8894,
      "glory": 8895,
      "punched": 8896,
      "springing": 8897,
      "lizards": 8898,
      "darted": 8899,
      "sweeter": 8900,
      "cheeky": 8901,
      "dusted": 8902,
      "yielding": 8903,
      "kneels": 8904,
      "valleys": 8905,
      "steaming": 8906,
      "enthusiastically": 8907,
      "yummier": 8908,
      "shortly": 8909,
      "demands": 8910,
      "shrinky": 8911,
      "preventing": 8912,
      "railway": 8913,
      "disappears": 8914,
      "thrill": 8915,
      "aliya": 8916,
      "rustle": 8917,
      "fashionista": 8918,
      "fying": 8919,
      "costs": 8920,
      "strikes": 8921,
      "swoop": 8922,
      "tours": 8923,
      "christopher": 8924,
      "honking": 8925,
      "honks": 8926,
      "confusion": 8927,
      "contained": 8928,
      "kyle": 8929,
      "junkyard": 8930,
      "chattered": 8931,
      "strummed": 8932,
      "kai": 8933,
      ".'\"": 8934,
      "recommendation": 8935,
      "connecting": 8936,
      "shhh": 8937,
      "coughing": 8938,
      "raindrop": 8939,
      "brian": 8940,
      "puppets": 8941,
      "congratulations": 8942,
      "centre": 8943,
      "damien": 8944,
      "snatch": 8945,
      "arrange": 8946,
      "robinson": 8947,
      "corals": 8948,
      "nanny": 8949,
      "nancy": 8950,
      "squawks": 8951,
      "enemy": 8952,
      "conversations": 8953,
      "10th": 8954,
      "refusing": 8955,
      "records": 8956,
      "savouring": 8957,
      "concerned": 8958,
      "glimmer": 8959,
      "hummingbird": 8960,
      "aisles": 8961,
      "conquer": 8962,
      "juggle": 8963,
      "courtney": 8964,
      "department": 8965,
      "leaping": 8966,
      "pleasantly": 8967,
      "marveling": 8968,
      "electric": 8969,
      "pretzels": 8970,
      "actors": 8971,
      "products": 8972,
      "popsicles": 8973,
      "dials": 8974,
      "retrieve": 8975,
      "retrieved": 8976,
      "lord": 8977,
      "spikey": 8978,
      "surprisingly": 8979,
      "collage": 8980,
      "certainly": 8981,
      "hovering": 8982,
      "adventurers": 8983,
      "000": 8984,
      "elias": 8985,
      "erupt": 8986,
      "katrine": 8987,
      "victoria": 8988,
      "cooperate": 8989,
      "cooperative": 8990,
      "twitched": 8991,
      "yori": 8992,
      "injuries": 8993,
      "soothing": 8994,
      "fooled": 8995,
      "tangy": 8996,
      "leftovers": 8997,
      "sparked": 8998,
      "fluffiest": 8999,
      "challenges": 9000,
      "fanciest": 9001,
      "privacy": 9002,
      "clipboard": 9003,
      "chattering": 9004,
      "somersaults": 9005,
      "vitam": 9006,
      "majestic": 9007,
      "predic": 9008,
      "brakes": 9009,
      "employee": 9010,
      "interrupted": 9011,
      "citizens": 9012,
      "jigsaw": 9013,
      "kilos": 9014,
      "streak": 9015,
      "fetched": 9016,
      "proceeded": 9017,
      "generations": 9018,
      "gracie": 9019,
      "distract": 9020,
      "miraculously": 9021,
      "involved": 9022,
      "destruction": 9023,
      "accepting": 9024,
      "aquarium": 9025,
      "bindu": 9026,
      "cinema": 9027,
      "coupon": 9028,
      "dvd": 9029,
      "eerie": 9030,
      "fertiliz": 9031,
      "galax": 9032,
      "gavin": 9033,
      "shattered": 9034,
      "sassy": 9035,
      "yolanda": 9036,
      "rejoiced": 9037,
      "aroma": 9038,
      "leprechaun": 9039,
      "extremely": 9040,
      "ecstatic": 9041,
      "lavender": 9042,
      "gramps": 9043,
      "shoelaces": 9044,
      "paramedics": 9045,
      "peculiar": 9046,
      "fertilizer": 9047,
      "!’": 9048,
      "!,\"": 9049,
      "?!": 9050,
      "ai": 9051,
      "ale": 9052,
      "ahold": 9053,
      "aaw": 9054,
      "bly": 9055,
      "based": 9056,
      "bian": 9057,
      "bizzy": 9058,
      "blic": 9059,
      "cig": 9060,
      "cally": 9061,
      "cass": 9062,
      "chard": 9063,
      "cip": 9064,
      "dizz": 9065,
      "ethan": 9066,
      "emotions": 9067,
      "fist": 9068,
      "ffi": 9069,
      "fists": 9070,
      "gang": 9071,
      "gled": 9072,
      "hint": 9073,
      "isher": 9074,
      "jiggled": 9075,
      "knap": 9076,
      "lce": 9077,
      "limp": 9078,
      "lana": 9079,
      "mid": 9080,
      "mul": 9081,
      "mended": 9082,
      "non": 9083,
      "ots": 9084,
      "obl": 9085,
      "oval": 9086,
      "oley": 9087,
      "pounce": 9088,
      "rin": 9089,
      "randy": 9090,
      "rider": 9091,
      "scan": 9092,
      "sons": 9093,
      "sens": 9094,
      "sari": 9095,
      "tan": 9096,
      "tend": 9097,
      "tes": 9098,
      "tart": 9099,
      "trot": 9100,
      "ucation": 9101,
      "uka": 9102,
      "vir": 9103,
      "vac": 9104,
      "yana": 9105,
      "heater": 9106,
      "heath": 9107,
      "anked": 9108,
      "education": 9109,
      "tories": 9110,
      "topics": 9111,
      "inspec": 9112,
      "inspir": 9113,
      "refe": 9114,
      "resu": 9115,
      "restor": 9116,
      "repay": 9117,
      "revenge": 9118,
      "asse": 9119,
      "asuka": 9120,
      "engl": 9121,
      "enchanted": 9122,
      "eras": 9123,
      "erick": 9124,
      "aring": 9125,
      "isins": 9126,
      "ilar": 9127,
      "ime": 9128,
      "imate": 9129,
      "impa": 9130,
      "loaf": 9131,
      "lopes": 9132,
      "orchard": 9133,
      "state": 9134,
      "stump": 9135,
      "atform": 9136,
      "attempt": 9137,
      "endless": 9138,
      "vera": 9139,
      "ces": 9140,
      "sewn": 9141,
      "sooo": 9142,
      "explan": 9143,
      "exchanged": 9144,
      "plum": 9145,
      "platform": 9146,
      "advan": 9147,
      "unwrap": 9148,
      "unfolded": 9149,
      "upcoming": 9150,
      "dooley": 9151,
      "liar": 9152,
      "liam": 9153,
      "hobb": 9154,
      "neighed": 9155,
      "bozo": 9156,
      "booth": 9157,
      "china": 9158,
      "chunks": 9159,
      "fewer": 9160,
      "alling": 9161,
      "roamed": 9162,
      "mac": 9163,
      "maury": 9164,
      "outer": 9165,
      "rap": 9166,
      "raw": 9167,
      "racks": 9168,
      "raffi": 9169,
      "raisins": 9170,
      "ulty": 9171,
      "spel": 9172,
      "spine": 9173,
      "whew": 9174,
      "whether": 9175,
      "sucked": 9176,
      "sushi": 9177,
      "cos": 9178,
      "cove": 9179,
      "coast": 9180,
      "cocon": 9181,
      "mower": 9182,
      "mopping": 9183,
      "moti": 9184,
      "cannon": 9185,
      "frantic": 9186,
      "econes": 9187,
      "ills": 9188,
      "benson": 9189,
      "shing": 9190,
      "shri": 9191,
      "tales": 9192,
      "backward": 9193,
      "umn": 9194,
      "sideways": 9195,
      "chees": 9196,
      "manner": 9197,
      "mangoes": 9198,
      "ication": 9199,
      "jol": 9200,
      "josie": 9201,
      "starry": 9202,
      "laps": 9203,
      "peaked": 9204,
      "lowers": 9205,
      "howled": 9206,
      "worst": 9207,
      "cawed": 9208,
      "cawing": 9209,
      "birdies": 9210,
      "birdseed": 9211,
      "grind": 9212,
      "grumble": 9213,
      "dded": 9214,
      "iety": 9215,
      "parks": 9216,
      "parking": 9217,
      "nacho": 9218,
      "musk": 9219,
      "lete": 9220,
      "wally": 9221,
      "ques": 9222,
      "quality": 9223,
      "brim": 9224,
      "affect": 9225,
      "typed": 9226,
      "useless": 9227,
      "potent": 9228,
      "sammie": 9229,
      "oured": 9230,
      "learner": 9231,
      "foreshadow": 9232,
      "wax": 9233,
      "ruffy": 9234,
      "swished": 9235,
      "justice": 9236,
      "donut": 9237,
      "finishes": 9238,
      "cleare": 9239,
      "inks": 9240,
      "sundays": 9241,
      "spotless": 9242,
      "overcoming": 9243,
      "skate": 9244,
      "handling": 9245,
      "handker": 9246,
      "umped": 9247,
      "unting": 9248,
      "harmed": 9249,
      "picky": 9250,
      "pickles": 9251,
      "offers": 9252,
      "commotion": 9253,
      "shiniest": 9254,
      "raincoats": 9255,
      "public": 9256,
      "safest": 9257,
      "explosion": 9258,
      "bravo": 9259,
      "ptied": 9260,
      "surger": 9261,
      "surfed": 9262,
      "shoved": 9263,
      "shorel": 9264,
      "grounded": 9265,
      "ctly": 9266,
      "consid": 9267,
      "trude": 9268,
      "hurtful": 9269,
      "doorknob": 9270,
      "phr": 9271,
      "workshop": 9272,
      "parcel": 9273,
      "emptied": 9274,
      "daily": 9275,
      "grandfather": 9276,
      "marty": 9277,
      "marley": 9278,
      "talons": 9279,
      "nighttime": 9280,
      "squinting": 9281,
      "bluebird": 9282,
      "replacing": 9283,
      "disobedient": 9284,
      "rocker": 9285,
      "monty": 9286,
      "nerves": 9287,
      "torch": 9288,
      "blinky": 9289,
[...]
